{
  "version": "1.0",
  "truncation": null,
  "padding": null,
  "added_tokens": [
    {
      "id": 0,
      "content": "[PAD]",
      "single_word": false,
      "lstrip": false,
      "rstrip": false,
      "normalized": false,
      "special": true
    },
    {
      "id": 1,
      "content": "[UNK]",
      "single_word": false,
      "lstrip": false,
      "rstrip": false,
      "normalized": false,
      "special": true
    },
    {
      "id": 2,
      "content": "<s>",
      "single_word": false,
      "lstrip": false,
      "rstrip": false,
      "normalized": false,
      "special": true
    },
    {
      "id": 3,
      "content": "</s>",
      "single_word": false,
      "lstrip": false,
      "rstrip": false,
      "normalized": false,
      "special": true
    },
    {
      "id": 4,
      "content": "<sep>",
      "single_word": false,
      "lstrip": false,
      "rstrip": false,
      "normalized": false,
      "special": true
    }
  ],
  "normalizer": {
    "type": "NFKC"
  },
  "pre_tokenizer": {
    "type": "Whitespace"
  },
  "post_processor": {
    "type": "TemplateProcessing",
    "single": [
      {
        "SpecialToken": {
          "id": "<s>",
          "type_id": 0
        }
      },
      {
        "Sequence": {
          "id": "A",
          "type_id": 0
        }
      },
      {
        "SpecialToken": {
          "id": "</s>",
          "type_id": 0
        }
      }
    ],
    "pair": [
      {
        "SpecialToken": {
          "id": "<s>",
          "type_id": 0
        }
      },
      {
        "Sequence": {
          "id": "A",
          "type_id": 0
        }
      },
      {
        "SpecialToken": {
          "id": "<sep>",
          "type_id": 0
        }
      },
      {
        "Sequence": {
          "id": "B",
          "type_id": 0
        }
      },
      {
        "SpecialToken": {
          "id": "</s>",
          "type_id": 0
        }
      }
    ],
    "special_tokens": {
      "</s>": {
        "id": "</s>",
        "ids": [
          3
        ],
        "tokens": [
          "</s>"
        ]
      },
      "<s>": {
        "id": "<s>",
        "ids": [
          2
        ],
        "tokens": [
          "<s>"
        ]
      },
      "<sep>": {
        "id": "<sep>",
        "ids": [
          4
        ],
        "tokens": [
          "<sep>"
        ]
      },
      "[PAD]": {
        "id": "[PAD]",
        "ids": [
          0
        ],
        "tokens": [
          "[PAD]"
        ]
      },
      "[UNK]": {
        "id": "[UNK]",
        "ids": [
          1
        ],
        "tokens": [
          "[UNK]"
        ]
      }
    }
  },
  "decoder": null,
  "model": {
    "type": "BPE",
    "dropout": null,
    "unk_token": "[UNK]",
    "continuing_subword_prefix": null,
    "end_of_word_suffix": null,
    "fuse_unk": false,
    "byte_fallback": false,
    "ignore_merges": false,
    "vocab": {
      "[PAD]": 0,
      "[UNK]": 1,
      "<s>": 2,
      "</s>": 3,
      "<sep>": 4,
      "!": 5,
      "\"": 6,
      "#": 7,
      "$": 8,
      "%": 9,
      "&": 10,
      "'": 11,
      "(": 12,
      ")": 13,
      "*": 14,
      "+": 15,
      ",": 16,
      "-": 17,
      ".": 18,
      "/": 19,
      "0": 20,
      "1": 21,
      "2": 22,
      "3": 23,
      "4": 24,
      "5": 25,
      "6": 26,
      "7": 27,
      "8": 28,
      "9": 29,
      ":": 30,
      ";": 31,
      "<": 32,
      "=": 33,
      ">": 34,
      "?": 35,
      "@": 36,
      "A": 37,
      "B": 38,
      "C": 39,
      "D": 40,
      "E": 41,
      "F": 42,
      "G": 43,
      "H": 44,
      "I": 45,
      "J": 46,
      "K": 47,
      "L": 48,
      "M": 49,
      "N": 50,
      "O": 51,
      "P": 52,
      "Q": 53,
      "R": 54,
      "S": 55,
      "T": 56,
      "U": 57,
      "V": 58,
      "W": 59,
      "X": 60,
      "Y": 61,
      "Z": 62,
      "[": 63,
      "\\": 64,
      "]": 65,
      "^": 66,
      "_": 67,
      "`": 68,
      "a": 69,
      "b": 70,
      "c": 71,
      "d": 72,
      "e": 73,
      "f": 74,
      "g": 75,
      "h": 76,
      "i": 77,
      "j": 78,
      "k": 79,
      "l": 80,
      "m": 81,
      "n": 82,
      "o": 83,
      "p": 84,
      "q": 85,
      "r": 86,
      "s": 87,
      "t": 88,
      "u": 89,
      "v": 90,
      "w": 91,
      "x": 92,
      "y": 93,
      "z": 94,
      "|": 95,
      "}": 96,
      "~": 97,
      "": 98,
      "": 99,
      "¡": 100,
      "¢": 101,
      "£": 102,
      "¥": 103,
      "§": 104,
      "©": 105,
      "°": 106,
      "±": 107,
      "·": 108,
      "¿": 109,
      "Á": 110,
      "Ä": 111,
      "Å": 112,
      "Æ": 113,
      "Ç": 114,
      "É": 115,
      "Í": 116,
      "Î": 117,
      "Ñ": 118,
      "Ó": 119,
      "Ö": 120,
      "×": 121,
      "Ø": 122,
      "Ú": 123,
      "Ü": 124,
      "Þ": 125,
      "ß": 126,
      "à": 127,
      "á": 128,
      "â": 129,
      "ã": 130,
      "ä": 131,
      "å": 132,
      "æ": 133,
      "ç": 134,
      "è": 135,
      "é": 136,
      "ê": 137,
      "ë": 138,
      "ì": 139,
      "í": 140,
      "î": 141,
      "ï": 142,
      "ð": 143,
      "ñ": 144,
      "ò": 145,
      "ó": 146,
      "ô": 147,
      "ö": 148,
      "ø": 149,
      "ù": 150,
      "ú": 151,
      "û": 152,
      "ü": 153,
      "ý": 154,
      "þ": 155,
      "Ā": 156,
      "ā": 157,
      "ă": 158,
      "ą": 159,
      "ć": 160,
      "Č": 161,
      "č": 162,
      "Đ": 163,
      "đ": 164,
      "Ē": 165,
      "ē": 166,
      "Ĕ": 167,
      "ĕ": 168,
      "ė": 169,
      "ę": 170,
      "ě": 171,
      "ğ": 172,
      "ħ": 173,
      "ī": 174,
      "İ": 175,
      "ı": 176,
      "Ľ": 177,
      "Ł": 178,
      "ł": 179,
      "ń": 180,
      "Ō": 181,
      "ō": 182,
      "œ": 183,
      "ř": 184,
      "Ś": 185,
      "ś": 186,
      "Ş": 187,
      "ş": 188,
      "Š": 189,
      "š": 190,
      "ţ": 191,
      "ũ": 192,
      "ū": 193,
      "ů": 194,
      "ų": 195,
      "ź": 196,
      "Ż": 197,
      "ż": 198,
      "Ž": 199,
      "ž": 200,
      "ơ": 201,
      "ư": 202,
      "ǎ": 203,
      "ǐ": 204,
      "ǔ": 205,
      "ǜ": 206,
      "Ș": 207,
      "ș": 208,
      "ț": 209,
      "ȯ": 210,
      "ɐ": 211,
      "ɑ": 212,
      "ɒ": 213,
      "ɔ": 214,
      "ə": 215,
      "ɛ": 216,
      "ɜ": 217,
      "ɡ": 218,
      "ɢ": 219,
      "ɪ": 220,
      "ɫ": 221,
      "ɳ": 222,
      "ɽ": 223,
      "ɾ": 224,
      "ʁ": 225,
      "ʃ": 226,
      "ʊ": 227,
      "ʋ": 228,
      "ʒ": 229,
      "ʔ": 230,
      "ʕ": 231,
      "ʻ": 232,
      "ʼ": 233,
      "ʾ": 234,
      "ʿ": 235,
      "ˈ": 236,
      "ˌ": 237,
      "ː": 238,
      "́": 239,
      "̃": 240,
      "̍": 241,
      "̥": 242,
      "̯": 243,
      "͍": 244,
      "͘": 245,
      "Α": 246,
      "Δ": 247,
      "Κ": 248,
      "Ν": 249,
      "Π": 250,
      "Τ": 251,
      "Φ": 252,
      "Χ": 253,
      "Ω": 254,
      "ά": 255,
      "έ": 256,
      "ή": 257,
      "ί": 258,
      "α": 259,
      "β": 260,
      "γ": 261,
      "δ": 262,
      "ε": 263,
      "η": 264,
      "θ": 265,
      "ι": 266,
      "κ": 267,
      "λ": 268,
      "μ": 269,
      "ν": 270,
      "ξ": 271,
      "ο": 272,
      "π": 273,
      "ρ": 274,
      "ς": 275,
      "σ": 276,
      "τ": 277,
      "υ": 278,
      "χ": 279,
      "ψ": 280,
      "ω": 281,
      "ό": 282,
      "ύ": 283,
      "ώ": 284,
      "А": 285,
      "Б": 286,
      "В": 287,
      "Г": 288,
      "К": 289,
      "П": 290,
      "Р": 291,
      "С": 292,
      "У": 293,
      "Х": 294,
      "Я": 295,
      "а": 296,
      "в": 297,
      "г": 298,
      "д": 299,
      "е": 300,
      "ж": 301,
      "з": 302,
      "и": 303,
      "й": 304,
      "к": 305,
      "л": 306,
      "м": 307,
      "н": 308,
      "о": 309,
      "п": 310,
      "р": 311,
      "с": 312,
      "т": 313,
      "у": 314,
      "х": 315,
      "ц": 316,
      "ш": 317,
      "ъ": 318,
      "ы": 319,
      "ь": 320,
      "ю": 321,
      "я": 322,
      "є": 323,
      "ֵ": 324,
      "ֶ": 325,
      "ָ": 326,
      "ֹ": 327,
      "ּ": 328,
      "א": 329,
      "ב": 330,
      "ג": 331,
      "ה": 332,
      "ו": 333,
      "ז": 334,
      "ח": 335,
      "י": 336,
      "ל": 337,
      "ם": 338,
      "מ": 339,
      "ן": 340,
      "נ": 341,
      "ס": 342,
      "ף": 343,
      "פ": 344,
      "צ": 345,
      "ר": 346,
      "ש": 347,
      "ת": 348,
      "ء": 349,
      "أ": 350,
      "إ": 351,
      "ا": 352,
      "ب": 353,
      "ة": 354,
      "ت": 355,
      "ث": 356,
      "ج": 357,
      "ح": 358,
      "خ": 359,
      "د": 360,
      "ذ": 361,
      "ر": 362,
      "س": 363,
      "ش": 364,
      "ص": 365,
      "ع": 366,
      "ف": 367,
      "ق": 368,
      "ك": 369,
      "ل": 370,
      "م": 371,
      "ن": 372,
      "ه": 373,
      "و": 374,
      "ي": 375,
      "ڠ": 376,
      "ܐ": 377,
      "ܕ": 378,
      "ܗ": 379,
      "ܝ": 380,
      "ܠ": 381,
      "ܢ": 382,
      "ܬ": 383,
      "ܲ": 384,
      "ܵ": 385,
      "ं": 386,
      "अ": 387,
      "ई": 388,
      "क": 389,
      "ग": 390,
      "ण": 391,
      "त": 392,
      "द": 393,
      "न": 394,
      "प": 395,
      "ब": 396,
      "म": 397,
      "य": 398,
      "र": 399,
      "ल": 400,
      "व": 401,
      "ष": 402,
      "स": 403,
      "ह": 404,
      "ा": 405,
      "ि": 406,
      "ु": 407,
      "ू": 408,
      "े": 409,
      "ै": 410,
      "ो": 411,
      "्": 412,
      "আ": 413,
      "ল": 414,
      "হ": 415,
      "া": 416,
      "্": 417,
      "ਅ": 418,
      "ਲ": 419,
      "ਹ": 420,
      "ਾ": 421,
      "ੁ": 422,
      "ੱ": 423,
      "അ": 424,
      "ള": 425,
      "ഹ": 426,
      "ാ": 427,
      "്": 428,
      "ก": 429,
      "ค": 430,
      "ง": 431,
      "ช": 432,
      "ซ": 433,
      "ญ": 434,
      "ฐ": 435,
      "ณ": 436,
      "ด": 437,
      "ต": 438,
      "น": 439,
      "บ": 440,
      "ป": 441,
      "พ": 442,
      "ภ": 443,
      "ม": 444,
      "ย": 445,
      "ร": 446,
      "ล": 447,
      "ว": 448,
      "ศ": 449,
      "ษ": 450,
      "ส": 451,
      "ห": 452,
      "อ": 453,
      "ฮ": 454,
      "ะ": 455,
      "ั": 456,
      "า": 457,
      "ิ": 458,
      "ี": 459,
      "ึ": 460,
      "เ": 461,
      "แ": 462,
      "ไ": 463,
      "็": 464,
      "่": 465,
      "้": 466,
      "๊": 467,
      "์": 468,
      "ဂ": 469,
      "စ": 470,
      "ဇ": 471,
      "တ": 472,
      "န": 473,
      "ပ": 474,
      "မ": 475,
      "ရ": 476,
      "လ": 477,
      "အ": 478,
      "ာ": 479,
      "ိ": 480,
      "ု": 481,
      "္": 482,
      "်": 483,
      "ြ": 484,
      "ွ": 485,
      "၁": 486,
      "၂": 487,
      "၇": 488,
      "၈": 489,
      "Ⴀ": 490,
      "Ⴂ": 491,
      "Ⴃ": 492,
      "Ⴈ": 493,
      "Ⴌ": 494,
      "Ⴕ": 495,
      "Ⴟ": 496,
      "ა": 497,
      "ბ": 498,
      "გ": 499,
      "დ": 500,
      "ე": 501,
      "ვ": 502,
      "ზ": 503,
      "თ": 504,
      "ი": 505,
      "კ": 506,
      "ლ": 507,
      "მ": 508,
      "ნ": 509,
      "ო": 510,
      "პ": 511,
      "ჟ": 512,
      "რ": 513,
      "ს": 514,
      "ტ": 515,
      "უ": 516,
      "ფ": 517,
      "ქ": 518,
      "ღ": 519,
      "ყ": 520,
      "შ": 521,
      "ჩ": 522,
      "ც": 523,
      "ძ": 524,
      "წ": 525,
      "ჭ": 526,
      "ხ": 527,
      "ჯ": 528,
      "ჰ": 529,
      "ჱ": 530,
      "ჲ": 531,
      "ჳ": 532,
      "ჴ": 533,
      "ჵ": 534,
      "ჶ": 535,
      "ჷ": 536,
      "ჸ": 537,
      "ჹ": 538,
      "ჺ": 539,
      "჻": 540,
      "ᵻ": 541,
      "ḍ": 542,
      "ḏ": 543,
      "Ḥ": 544,
      "ḥ": 545,
      "ḷ": 546,
      "ṃ": 547,
      "ṅ": 548,
      "ṇ": 549,
      "ṛ": 550,
      "ṣ": 551,
      "ṭ": 552,
      "ṯ": 553,
      "ạ": 554,
      "ả": 555,
      "ấ": 556,
      "ầ": 557,
      "ẩ": 558,
      "ậ": 559,
      "ắ": 560,
      "ễ": 561,
      "ệ": 562,
      "ị": 563,
      "ọ": 564,
      "ỏ": 565,
      "ỗ": 566,
      "ộ": 567,
      "ớ": 568,
      "ứ": 569,
      "ử": 570,
      "ữ": 571,
      "ỳ": 572,
      "ỹ": 573,
      "ἀ": 574,
      "ἰ": 575,
      "ὀ": 576,
      "ὁ": 577,
      "ὑ": 578,
      "​": 579,
      "‐": 580,
      "–": 581,
      "—": 582,
      "―": 583,
      "‘": 584,
      "’": 585,
      "“": 586,
      "”": 587,
      "„": 588,
      "†": 589,
      "‡": 590,
      "•": 591,
      "′": 592,
      "⁄": 593,
      "₣": 594,
      "₤": 595,
      "₩": 596,
      "€": 597,
      "₱": 598,
      "₹": 599,
      "→": 600,
      "−": 601,
      "≡": 602,
      "≤": 603,
      "☉": 604,
      "☫": 605,
      "♀": 606,
      "♭": 607,
      "♯": 608,
      "⚳": 609,
      "〈": 610,
      "〉": 611,
      "〜": 612,
      "あ": 613,
      "い": 614,
      "う": 615,
      "お": 616,
      "か": 617,
      "が": 618,
      "き": 619,
      "ぎ": 620,
      "く": 621,
      "ぐ": 622,
      "け": 623,
      "こ": 624,
      "ご": 625,
      "さ": 626,
      "し": 627,
      "す": 628,
      "ず": 629,
      "ぜ": 630,
      "た": 631,
      "だ": 632,
      "ち": 633,
      "っ": 634,
      "つ": 635,
      "と": 636,
      "な": 637,
      "に": 638,
      "の": 639,
      "は": 640,
      "ば": 641,
      "ひ": 642,
      "ふ": 643,
      "ほ": 644,
      "ま": 645,
      "み": 646,
      "め": 647,
      "も": 648,
      "ゃ": 649,
      "ゆ": 650,
      "ょ": 651,
      "ら": 652,
      "り": 653,
      "る": 654,
      "れ": 655,
      "わ": 656,
      "を": 657,
      "ん": 658,
      "ァ": 659,
      "ア": 660,
      "ィ": 661,
      "イ": 662,
      "ゥ": 663,
      "ェ": 664,
      "エ": 665,
      "ォ": 666,
      "オ": 667,
      "カ": 668,
      "ガ": 669,
      "キ": 670,
      "ク": 671,
      "グ": 672,
      "ゲ": 673,
      "コ": 674,
      "サ": 675,
      "シ": 676,
      "ジ": 677,
      "ス": 678,
      "ズ": 679,
      "セ": 680,
      "タ": 681,
      "ダ": 682,
      "チ": 683,
      "ッ": 684,
      "ツ": 685,
      "テ": 686,
      "デ": 687,
      "ト": 688,
      "ド": 689,
      "ナ": 690,
      "ニ": 691,
      "ネ": 692,
      "ノ": 693,
      "ハ": 694,
      "バ": 695,
      "パ": 696,
      "フ": 697,
      "ブ": 698,
      "プ": 699,
      "ヘ": 700,
      "ベ": 701,
      "マ": 702,
      "ミ": 703,
      "ム": 704,
      "モ": 705,
      "ャ": 706,
      "ュ": 707,
      "ョ": 708,
      "ラ": 709,
      "リ": 710,
      "ル": 711,
      "レ": 712,
      "ロ": 713,
      "ン": 714,
      "ヴ": 715,
      "・": 716,
      "ー": 717,
      "一": 718,
      "七": 719,
      "下": 720,
      "世": 721,
      "丙": 722,
      "中": 723,
      "为": 724,
      "主": 725,
      "乃": 726,
      "之": 727,
      "乙": 728,
      "九": 729,
      "二": 730,
      "云": 731,
      "人": 732,
      "今": 733,
      "付": 734,
      "伊": 735,
      "似": 736,
      "作": 737,
      "侗": 738,
      "依": 739,
      "信": 740,
      "傳": 741,
      "儚": 742,
      "充": 743,
      "光": 744,
      "全": 745,
      "八": 746,
      "六": 747,
      "兵": 748,
      "其": 749,
      "具": 750,
      "円": 751,
      "再": 752,
      "出": 753,
      "判": 754,
      "利": 755,
      "制": 756,
      "刷": 757,
      "前": 758,
      "剛": 759,
      "劇": 760,
      "劉": 761,
      "助": 762,
      "動": 763,
      "勢": 764,
      "包": 765,
      "化": 766,
      "北": 767,
      "十": 768,
      "千": 769,
      "华": 770,
      "南": 771,
      "印": 772,
      "厂": 773,
      "去": 774,
      "古": 775,
      "可": 776,
      "台": 777,
      "史": 778,
      "同": 779,
      "名": 780,
      "君": 781,
      "吳": 782,
      "周": 783,
      "命": 784,
      "和": 785,
      "咲": 786,
      "唐": 787,
      "善": 788,
      "四": 789,
      "國": 790,
      "園": 791,
      "圣": 792,
      "在": 793,
      "坂": 794,
      "型": 795,
      "堂": 796,
      "堤": 797,
      "場": 798,
      "塘": 799,
      "士": 800,
      "夕": 801,
      "大": 802,
      "天": 803,
      "夫": 804,
      "奈": 805,
      "套": 806,
      "女": 807,
      "妙": 808,
      "姚": 809,
      "子": 810,
      "孟": 811,
      "学": 812,
      "學": 813,
      "守": 814,
      "安": 815,
      "宋": 816,
      "完": 817,
      "宗": 818,
      "定": 819,
      "宝": 820,
      "宫": 821,
      "寝": 822,
      "寶": 823,
      "寺": 824,
      "小": 825,
      "少": 826,
      "尾": 827,
      "山": 828,
      "岳": 829,
      "川": 830,
      "州": 831,
      "巳": 832,
      "市": 833,
      "師": 834,
      "平": 835,
      "广": 836,
      "庆": 837,
      "府": 838,
      "座": 839,
      "廬": 840,
      "建": 841,
      "开": 842,
      "式": 843,
      "張": 844,
      "彌": 845,
      "彩": 846,
      "影": 847,
      "彼": 848,
      "征": 849,
      "律": 850,
      "後": 851,
      "御": 852,
      "微": 853,
      "德": 854,
      "心": 855,
      "必": 856,
      "忠": 857,
      "思": 858,
      "愛": 859,
      "憑": 860,
      "憶": 861,
      "應": 862,
      "懷": 863,
      "成": 864,
      "战": 865,
      "戦": 866,
      "所": 867,
      "扈": 868,
      "技": 869,
      "拉": 870,
      "拱": 871,
      "拳": 872,
      "挑": 873,
      "揺": 874,
      "攻": 875,
      "放": 876,
      "政": 877,
      "散": 878,
      "文": 879,
      "斯": 880,
      "方": 881,
      "日": 882,
      "旦": 883,
      "旭": 884,
      "昌": 885,
      "明": 886,
      "星": 887,
      "春": 888,
      "晋": 889,
      "景": 890,
      "智": 891,
      "曦": 892,
      "書": 893,
      "月": 894,
      "望": 895,
      "朝": 896,
      "未": 897,
      "本": 898,
      "李": 899,
      "村": 900,
      "杜": 901,
      "束": 902,
      "来": 903,
      "東": 904,
      "板": 905,
      "林": 906,
      "果": 907,
      "桜": 908,
      "梶": 909,
      "棘": 910,
      "椎": 911,
      "楊": 912,
      "楚": 913,
      "榮": 914,
      "樸": 915,
      "橘": 916,
      "機": 917,
      "正": 918,
      "殻": 919,
      "殿": 920,
      "毅": 921,
      "母": 922,
      "民": 923,
      "水": 924,
      "汉": 925,
      "沂": 926,
      "沙": 927,
      "河": 928,
      "法": 929,
      "泗": 930,
      "波": 931,
      "泣": 932,
      "洪": 933,
      "浮": 934,
      "淹": 935,
      "清": 936,
      "湯": 937,
      "漢": 938,
      "澄": 939,
      "澤": 940,
      "火": 941,
      "灯": 942,
      "灵": 943,
      "灼": 944,
      "無": 945,
      "焼": 946,
      "熱": 947,
      "牌": 948,
      "物": 949,
      "狐": 950,
      "狸": 951,
      "玄": 952,
      "玉": 953,
      "王": 954,
      "玩": 955,
      "珂": 956,
      "珙": 957,
      "球": 958,
      "理": 959,
      "琦": 960,
      "琪": 961,
      "瓊": 962,
      "生": 963,
      "甫": 964,
      "田": 965,
      "甲": 966,
      "畢": 967,
      "番": 968,
      "畫": 969,
      "疆": 970,
      "病": 971,
      "瘡": 972,
      "白": 973,
      "皇": 974,
      "皮": 975,
      "真": 976,
      "砲": 977,
      "礮": 978,
      "祈": 979,
      "神": 980,
      "祠": 981,
      "秋": 982,
      "秘": 983,
      "稽": 984,
      "空": 985,
      "立": 986,
      "竹": 987,
      "箋": 988,
      "籠": 989,
      "精": 990,
      "紀": 991,
      "約": 992,
      "統": 993,
      "絵": 994,
      "緬": 995,
      "織": 996,
      "繹": 997,
      "義": 998,
      "翠": 999,
      "者": 1000,
      "耕": 1001,
      "聖": 1002,
      "肖": 1003,
      "背": 1004,
      "胡": 1005,
      "膀": 1006,
      "臂": 1007,
      "致": 1008,
      "興": 1009,
      "舍": 1010,
      "艦": 1011,
      "良": 1012,
      "芥": 1013,
      "花": 1014,
      "芳": 1015,
      "芽": 1016,
      "若": 1017,
      "英": 1018,
      "萬": 1019,
      "著": 1020,
      "藕": 1021,
      "藥": 1022,
      "蘄": 1023,
      "蘇": 1024,
      "蘿": 1025,
      "處": 1026,
      "蝴": 1027,
      "蝶": 1028,
      "行": 1029,
      "術": 1030,
      "衛": 1031,
      "表": 1032,
      "裁": 1033,
      "裝": 1034,
      "要": 1035,
      "規": 1036,
      "覺": 1037,
      "观": 1038,
      "解": 1039,
      "言": 1040,
      "記": 1041,
      "詔": 1042,
      "詩": 1043,
      "誓": 1044,
      "誡": 1045,
      "誰": 1046,
      "謎": 1047,
      "譌": 1048,
      "譚": 1049,
      "譜": 1050,
      "變": 1051,
      "许": 1052,
      "谭": 1053,
      "豪": 1054,
      "豫": 1055,
      "費": 1056,
      "贈": 1057,
      "贵": 1058,
      "赤": 1059,
      "趙": 1060,
      "足": 1061,
      "跡": 1062,
      "軒": 1063,
      "転": 1064,
      "辛": 1065,
      "辨": 1066,
      "迪": 1067,
      "逆": 1068,
      "遇": 1069,
      "運": 1070,
      "過": 1071,
      "道": 1072,
      "遠": 1073,
      "選": 1074,
      "邦": 1075,
      "邱": 1076,
      "邵": 1077,
      "部": 1078,
      "郭": 1079,
      "都": 1080,
      "酈": 1081,
      "里": 1082,
      "野": 1083,
      "金": 1084,
      "鉄": 1085,
      "銃": 1086,
      "鋼": 1087,
      "錄": 1088,
      "錡": 1089,
      "錦": 1090,
      "鍵": 1091,
      "鐵": 1092,
      "钱": 1093,
      "铁": 1094,
      "關": 1095,
      "防": 1096,
      "阿": 1097,
      "陈": 1098,
      "陳": 1099,
      "陽": 1100,
      "隊": 1101,
      "階": 1102,
      "集": 1103,
      "雞": 1104,
      "雪": 1105,
      "雲": 1106,
      "霖": 1107,
      "霹": 1108,
      "靂": 1109,
      "韓": 1110,
      "頒": 1111,
      "願": 1112,
      "類": 1113,
      "顯": 1114,
      "颜": 1115,
      "饾": 1116,
      "駢": 1117,
      "驗": 1118,
      "马": 1119,
      "體": 1120,
      "高": 1121,
      "魯": 1122,
      "齋": 1123,
      "龍": 1124,
      "대": 1125,
      "독": 1126,
      "라": 1127,
      "립": 1128,
      "병": 1129,
      "보": 1130,
      "부": 1131,
      "알": 1132,
      "연": 1133,
      "제": 1134,
      "﻿": 1135,
      "�": 1136,
      "in": 1137,
      "an": 1138,
      "he": 1139,
      "ing": 1140,
      "re": 1141,
      "the": 1142,
      "on": 1143,
      "is": 1144,
      "er": 1145,
      "it": 1146,
      "le": 1147,
      "at": 1148,
      "ar": 1149,
      "man": 1150,
      "ou": 1151,
      "and": 1152,
      "st": 1153,
      "al": 1154,
      "en": 1155,
      "wo": 1156,
      "of": 1157,
      "or": 1158,
      "la": 1159,
      "ir": 1160,
      "to": 1161,
      "are": 1162,
      "The": 1163,
      "ch": 1164,
      "ro": 1165,
      "ed": 1166,
      "es": 1167,
      "ck": 1168,
      "ld": 1169,
      "as": 1170,
      "ith": 1171,
      "with": 1172,
      "id": 1173,
      "et": 1174,
      "op": 1175,
      "do": 1176,
      "lo": 1177,
      "sh": 1178,
      "bo": 1179,
      "ic": 1180,
      "wh": 1181,
      "oun": 1182,
      "king": 1183,
      "woman": 1184,
      "pe": 1185,
      "th": 1186,
      "we": 1187,
      "pla": 1188,
      "men": 1189,
      "ople": 1190,
      "ts": 1191,
      "ra": 1192,
      "ers": 1193,
      "all": 1194,
      "play": 1195,
      "om": 1196,
      "un": 1197,
      "ad": 1198,
      "be": 1199,
      "for": 1200,
      "ting": 1201,
      "people": 1202,
      "ge": 1203,
      "ide": 1204,
      "gr": 1205,
      "se": 1206,
      "am": 1207,
      "Two": 1208,
      "his": 1209,
      "aring": 1210,
      "ss": 1211,
      "ion": 1212,
      "il": 1213,
      "ce": 1214,
      "sit": 1215,
      "ild": 1216,
      "ri": 1217,
      "gh": 1218,
      "wearing": 1219,
      "wn": 1220,
      "red": 1221,
      "ther": 1222,
      "irt": 1223,
      "ho": 1224,
      "irl": 1225,
      "ve": 1226,
      "ur": 1227,
      "wal": 1228,
      "girl": 1229,
      "stand": 1230,
      "ne": 1231,
      "boy": 1232,
      "bl": 1233,
      "ile": 1234,
      "im": 1235,
      "ta": 1236,
      "dog": 1237,
      "shirt": 1238,
      "one": 1239,
      "ver": 1240,
      "ite": 1241,
      "um": 1242,
      "oung": 1243,
      "co": 1244,
      "ue": 1245,
      "by": 1246,
      "po": 1247,
      "her": 1248,
      "playing": 1249,
      "wat": 1250,
      "te": 1251,
      "young": 1252,
      "ct": 1253,
      "bu": 1254,
      "while": 1255,
      "lack": 1256,
      "white": 1257,
      "oup": 1258,
      "ard": 1259,
      "ack": 1260,
      "out": 1261,
      "child": 1262,
      "black": 1263,
      "ound": 1264,
      "sitting": 1265,
      "ly": 1266,
      "other": 1267,
      "loo": 1268,
      "blue": 1269,
      "ke": 1270,
      "no": 1271,
      "air": 1272,
      "ma": 1273,
      "ball": 1274,
      "up": 1275,
      "ree": 1276,
      "standing": 1277,
      "li": 1278,
      "hold": 1279,
      "ome": 1280,
      "fr": 1281,
      "ap": 1282,
      "stre": 1283,
      "wor": 1284,
      "ay": 1285,
      "ter": 1286,
      "group": 1287,
      "con": 1288,
      "ul": 1289,
      "down": 1290,
      "el": 1291,
      "us": 1292,
      "car": 1293,
      "fo": 1294,
      "low": 1295,
      "street": 1296,
      "ks": 1297,
      "outs": 1298,
      "od": 1299,
      "fi": 1300,
      "walking": 1301,
      "outside": 1302,
      "fe": 1303,
      "erson": 1304,
      "ont": 1305,
      "ent": 1306,
      "che": 1307,
      "run": 1308,
      "sm": 1309,
      "front": 1310,
      "person": 1311,
      "par": 1312,
      "ping": 1313,
      "rom": 1314,
      "two": 1315,
      "ress": 1316,
      "ren": 1317,
      "ach": 1318,
      "ol": 1319,
      "cro": 1320,
      "side": 1321,
      "rid": 1322,
      "holding": 1323,
      "ru": 1324,
      "was": 1325,
      "from": 1326,
      "water": 1327,
      "de": 1328,
      "their": 1329,
      "gu": 1330,
      "ght": 1331,
      "women": 1332,
      "ig": 1333,
      "ag": 1334,
      "ying": 1335,
      "ate": 1336,
      "form": 1337,
      "ble": 1338,
      "sk": 1339,
      "mo": 1340,
      "dress": 1341,
      "back": 1342,
      "ong": 1343,
      "ll": 1344,
      "that": 1345,
      "tle": 1346,
      "ure": 1347,
      "tra": 1348,
      "An": 1349,
      "ation": 1350,
      "di": 1351,
      "looking": 1352,
      "ning": 1353,
      "our": 1354,
      "There": 1355,
      "ving": 1356,
      "ha": 1357,
      "com": 1358,
      "go": 1359,
      "ough": 1360,
      "gre": 1361,
      "ass": 1362,
      "per": 1363,
      "bi": 1364,
      "cl": 1365,
      "ground": 1366,
      "Th": 1367,
      "Pe": 1368,
      "cle": 1369,
      "so": 1370,
      "jum": 1371,
      "lit": 1372,
      "ian": 1373,
      "walk": 1374,
      "People": 1375,
      "end": 1376,
      "ist": 1377,
      "over": 1378,
      "has": 1379,
      "su": 1380,
      "bro": 1381,
      "lar": 1382,
      "green": 1383,
      "Three": 1384,
      "hat": 1385,
      "fa": 1386,
      "now": 1387,
      "pa": 1388,
      "rough": 1389,
      "board": 1390,
      "sho": 1391,
      "children": 1392,
      "dy": 1393,
      "ph": 1394,
      "ment": 1395,
      "some": 1396,
      "through": 1397,
      "ors": 1398,
      "ine": 1399,
      "xt": 1400,
      "large": 1401,
      "eld": 1402,
      "work": 1403,
      "ame": 1404,
      "hand": 1405,
      "old": 1406,
      "wa": 1407,
      "ind": 1408,
      "gra": 1409,
      "build": 1410,
      "little": 1411,
      "into": 1412,
      "ating": 1413,
      "near": 1414,
      "lass": 1415,
      "ity": 1416,
      "sw": 1417,
      "pic": 1418,
      "yel": 1419,
      "building": 1420,
      "snow": 1421,
      "hing": 1422,
      "ie": 1423,
      "running": 1424,
      "ut": 1425,
      "ill": 1426,
      "off": 1427,
      "yellow": 1428,
      "pro": 1429,
      "bas": 1430,
      "sc": 1431,
      "-@": 1432,
      "@-@": 1433,
      "sp": 1434,
      "riding": 1435,
      "cer": 1436,
      "sing": 1437,
      "age": 1438,
      "ps": 1439,
      "wd": 1440,
      "next": 1441,
      "brown": 1442,
      "clo": 1443,
      "ching": 1444,
      "way": 1445,
      "ice": 1446,
      "tal": 1447,
      "crowd": 1448,
      "its": 1449,
      "read": 1450,
      "stru": 1451,
      "ink": 1452,
      "tr": 1453,
      "ture": 1454,
      "dr": 1455,
      "ick": 1456,
      "ction": 1457,
      "der": 1458,
      "small": 1459,
      "beach": 1460,
      "pre": 1461,
      "male": 1462,
      "get": 1463,
      "ant": 1464,
      "lee": 1465,
      "dressed": 1466,
      "rest": 1467,
      "another": 1468,
      "ans": 1469,
      "ark": 1470,
      "je": 1471,
      "jack": 1472,
      "around": 1473,
      "tain": 1474,
      "cam": 1475,
      "qu": 1476,
      "ca": 1477,
      "jacket": 1478,
      "head": 1479,
      "ex": 1480,
      "ange": 1481,
      "field": 1482,
      "ot": 1483,
      "glass": 1484,
      "comp": 1485,
      "girls": 1486,
      "table": 1487,
      "em": 1488,
      "dogs": 1489,
      "bike": 1490,
      "park": 1491,
      "ves": 1492,
      "led": 1493,
      "cing": 1494,
      "perform": 1495,
      "ycle": 1496,
      "art": 1497,
      "picture": 1498,
      "dan": 1499,
      "grass": 1500,
      "hair": 1501,
      "ort": 1502,
      "sun": 1503,
      "top": 1504,
      "af": 1505,
      "stands": 1506,
      "ip": 1507,
      "ive": 1508,
      "sur": 1509,
      "game": 1510,
      "itar": 1511,
      "ber": 1512,
      "ign": 1513,
      "him": 1514,
      "ba": 1515,
      "kid": 1516,
      "sits": 1517,
      "ud": 1518,
      "jo": 1519,
      "slee": 1520,
      "Man": 1521,
      "ful": 1522,
      "ated": 1523,
      "hind": 1524,
      "working": 1525,
      "cross": 1526,
      "ess": 1527,
      "ab": 1528,
      "ath": 1529,
      "behind": 1530,
      "outdo": 1531,
      "bus": 1532,
      "jumping": 1533,
      "swim": 1534,
      "era": 1535,
      "glasses": 1536,
      "In": 1537,
      "ty": 1538,
      "Ch": 1539,
      "ped": 1540,
      "hi": 1541,
      "kes": 1542,
      "19": 1543,
      "rock": 1544,
      "guy": 1545,
      "orts": 1546,
      "background": 1547,
      "orange": 1548,
      "ies": 1549,
      "phone": 1550,
      "day": 1551,
      "ants": 1552,
      "sidewalk": 1553,
      "iting": 1554,
      "win": 1555,
      "player": 1556,
      "ond": 1557,
      "int": 1558,
      "som": 1559,
      "ac": 1560,
      "ust": 1561,
      "pl": 1562,
      "room": 1563,
      "arm": 1564,
      "ling": 1565,
      "pink": 1566,
      "hel": 1567,
      "ches": 1568,
      "them": 1569,
      "somet": 1570,
      "looks": 1571,
      "00": 1572,
      "met": 1573,
      "whe": 1574,
      "boys": 1575,
      "Some": 1576,
      "who": 1577,
      "camera": 1578,
      "tor": 1579,
      "watching": 1580,
      "talking": 1581,
      "tri": 1582,
      "plays": 1583,
      "something": 1584,
      "wall": 1585,
      "ish": 1586,
      "gether": 1587,
      "city": 1588,
      "iling": 1589,
      "lady": 1590,
      "wood": 1591,
      "together": 1592,
      "were": 1593,
      "ars": 1594,
      "ouple": 1595,
      "ey": 1596,
      "cor": 1597,
      "col": 1598,
      "ountain": 1599,
      "ward": 1600,
      "spe": 1601,
      "usic": 1602,
      "boo": 1603,
      "ich": 1604,
      "guitar": 1605,
      "soc": 1606,
      "couple": 1607,
      "me": 1608,
      "cat": 1609,
      "ff": 1610,
      "veral": 1611,
      "ak": 1612,
      "road": 1613,
      "being": 1614,
      "mer": 1615,
      "les": 1616,
      "not": 1617,
      "taking": 1618,
      "eating": 1619,
      "ga": 1620,
      "sto": 1621,
      "under": 1622,
      "skate": 1623,
      "she": 1624,
      "ous": 1625,
      "music": 1626,
      "each": 1627,
      "ben": 1628,
      "food": 1629,
      "bic": 1630,
      "soccer": 1631,
      "As": 1632,
      "ket": 1633,
      "rying": 1634,
      "wing": 1635,
      "band": 1636,
      "foot": 1637,
      "about": 1638,
      "ence": 1639,
      "walks": 1640,
      "ten": 1641,
      "br": 1642,
      "cre": 1643,
      "base": 1644,
      "iv": 1645,
      "team": 1646,
      "boat": 1647,
      "clim": 1648,
      "des": 1649,
      "they": 1650,
      "dis": 1651,
      "three": 1652,
      "Se": 1653,
      "ast": 1654,
      "bre": 1655,
      "mid": 1656,
      "long": 1657,
      "shorts": 1658,
      "gg": 1659,
      "uring": 1660,
      "ain": 1661,
      "ight": 1662,
      "bri": 1663,
      "skateboard": 1664,
      "pu": 1665,
      "ming": 1666,
      "pants": 1667,
      "along": 1668,
      "sign": 1669,
      "baby": 1670,
      "set": 1671,
      "sand": 1672,
      "sa": 1673,
      "stri": 1674,
      "ial": 1675,
      "gray": 1676,
      "ater": 1677,
      "older": 1678,
      "ade": 1679,
      "suit": 1680,
      "doing": 1681,
      "can": 1682,
      "ang": 1683,
      "bench": 1684,
      "pool": 1685,
      "bal": 1686,
      "ev": 1687,
      "ican": 1688,
      "fri": 1689,
      "which": 1690,
      "have": 1691,
      "chair": 1692,
      "dle": 1693,
      "ser": 1694,
      "hor": 1695,
      "ws": 1696,
      "uni": 1697,
      "sleeping": 1698,
      "face": 1699,
      "holds": 1700,
      "outdoors": 1701,
      "ally": 1702,
      "shop": 1703,
      "ft": 1704,
      "climb": 1705,
      "but": 1706,
      "waiting": 1707,
      "ily": 1708,
      "pho": 1709,
      "outh": 1710,
      "inside": 1711,
      "hu": 1712,
      "look": 1713,
      "ner": 1714,
      "ste": 1715,
      "jeans": 1716,
      "kids": 1717,
      "ple": 1718,
      "ces": 1719,
      "after": 1720,
      "friend": 1721,
      "pur": 1722,
      "race": 1723,
      "bar": 1724,
      "dark": 1725,
      "carrying": 1726,
      "flo": 1727,
      "female": 1728,
      "tree": 1729,
      "photo": 1730,
      "bicycle": 1731,
      "uniform": 1732,
      "smiling": 1733,
      "swe": 1734,
      "Asian": 1735,
      "dri": 1736,
      "mountain": 1737,
      "line": 1738,
      "blond": 1739,
      "struction": 1740,
      "stage": 1741,
      "hands": 1742,
      "bag": 1743,
      "Four": 1744,
      "tan": 1745,
      "ould": 1746,
      "au": 1747,
      "baseball": 1748,
      "tim": 1749,
      "ouse": 1750,
      "basket": 1751,
      "performing": 1752,
      "home": 1753,
      "thing": 1754,
      "having": 1755,
      "du": 1756,
      "had": 1757,
      "swimming": 1758,
      "store": 1759,
      "light": 1760,
      "cks": 1761,
      "fire": 1762,
      "als": 1763,
      "use": 1764,
      "train": 1765,
      "mar": 1766,
      "very": 1767,
      "horse": 1768,
      "getting": 1769,
      "ance": 1770,
      "cap": 1771,
      "ob": 1772,
      "using": 1773,
      "new": 1774,
      "iz": 1775,
      "cho": 1776,
      "mp": 1777,
      "land": 1778,
      "ti": 1779,
      "dirt": 1780,
      "motor": 1781,
      "during": 1782,
      "Wo": 1783,
      "coat": 1784,
      "football": 1785,
      "area": 1786,
      "av": 1787,
      "ition": 1788,
      "tre": 1789,
      "mic": 1790,
      "fore": 1791,
      "roll": 1792,
      "enjo": 1793,
      "He": 1794,
      "ult": 1795,
      "ys": 1796,
      "again": 1797,
      "reading": 1798,
      "coo": 1799,
      "trying": 1800,
      "making": 1801,
      "fir": 1802,
      "mon": 1803,
      "dancing": 1804,
      "mat": 1805,
      "body": 1806,
      "part": 1807,
      "pr": 1808,
      "bat": 1809,
      "prep": 1810,
      "ear": 1811,
      "windo": 1812,
      "drin": 1813,
      "construction": 1814,
      "toward": 1815,
      "vie": 1816,
      "players": 1817,
      "fam": 1818,
      "going": 1819,
      "ding": 1820,
      "thro": 1821,
      "high": 1822,
      "swing": 1823,
      "micro": 1824,
      "nis": 1825,
      "jumps": 1826,
      "inting": 1827,
      "fla": 1828,
      "open": 1829,
      "vel": 1830,
      "helmet": 1831,
      "res": 1832,
      "vers": 1833,
      "mark": 1834,
      "sl": 1835,
      "compet": 1836,
      "time": 1837,
      "cean": 1838,
      "rit": 1839,
      "less": 1840,
      "round": 1841,
      "across": 1842,
      "against": 1843,
      "first": 1844,
      "bed": 1845,
      "Several": 1846,
      "tur": 1847,
      "ved": 1848,
      "ley": 1849,
      "workers": 1850,
      "surf": 1851,
      "this": 1852,
      "gs": 1853,
      "gy": 1854,
      "tru": 1855,
      "ia": 1856,
      "ary": 1857,
      "house": 1858,
      "ocean": 1859,
      "middle": 1860,
      "runs": 1861,
      "rides": 1862,
      "ired": 1863,
      "watch": 1864,
      "ird": 1865,
      "pass": 1866,
      "book": 1867,
      "app": 1868,
      "instru": 1869,
      "basketball": 1870,
      "ler": 1871,
      "vest": 1872,
      "tennis": 1873,
      "motorc": 1874,
      "rain": 1875,
      "ry": 1876,
      "aur": 1877,
      "ons": 1878,
      "posing": 1879,
      "irts": 1880,
      "One": 1881,
      "pra": 1882,
      "cal": 1883,
      "gi": 1884,
      "ates": 1885,
      "fl": 1886,
      "mouth": 1887,
      "act": 1888,
      "coun": 1889,
      "climbing": 1890,
      "sel": 1891,
      "restaur": 1892,
      "stick": 1893,
      "floor": 1894,
      "ments": 1895,
      "sunglasses": 1896,
      "ced": 1897,
      "family": 1898,
      "aper": 1899,
      "restaurant": 1900,
      "color": 1901,
      "bow": 1902,
      "like": 1903,
      "port": 1904,
      "vis": 1905,
      "aning": 1906,
      "ines": 1907,
      "toy": 1908,
      "cas": 1909,
      "ted": 1910,
      "ele": 1911,
      "ical": 1912,
      "flow": 1913,
      "striped": 1914,
      "window": 1915,
      "watches": 1916,
      "20": 1917,
      "ready": 1918,
      "there": 1919,
      "purple": 1920,
      "truck": 1921,
      "thes": 1922,
      "ep": 1923,
      "anim": 1924,
      "bet": 1925,
      "sub": 1926,
      "also": 1927,
      "ski": 1928,
      "ched": 1929,
      "four": 1930,
      "Men": 1931,
      "hill": 1932,
      "200": 1933,
      "shirts": 1934,
      "ride": 1935,
      "market": 1936,
      "cur": 1937,
      "ycl": 1938,
      "lea": 1939,
      "past": 1940,
      "friends": 1941,
      "fil": 1942,
      "just": 1943,
      "ween": 1944,
      "This": 1945,
      "motorcycle": 1946,
      "Young": 1947,
      "erly": 1948,
      "many": 1949,
      "stum": 1950,
      "able": 1951,
      "lake": 1952,
      "pol": 1953,
      "pie": 1954,
      "ban": 1955,
      "sell": 1956,
      "bes": 1957,
      "cu": 1958,
      "vered": 1959,
      "lying": 1960,
      "tu": 1961,
      "ny": 1962,
      "kit": 1963,
      "cut": 1964,
      "chool": 1965,
      "clothes": 1966,
      "ix": 1967,
      "clothing": 1968,
      "pack": 1969,
      "No": 1970,
      "haired": 1971,
      "singing": 1972,
      "been": 1973,
      "ents": 1974,
      "several": 1975,
      "microphone": 1976,
      "chas": 1977,
      "Amer": 1978,
      "na": 1979,
      "ject": 1980,
      "num": 1981,
      "ouch": 1982,
      "too": 1983,
      "hed": 1984,
      "big": 1985,
      "appe": 1986,
      "Child": 1987,
      "let": 1988,
      "covered": 1989,
      "ists": 1990,
      "trees": 1991,
      "plan": 1992,
      "away": 1993,
      "night": 1994,
      "lored": 1995,
      "class": 1996,
      "lla": 1997,
      "They": 1998,
      "laying": 1999,
      "dra": 2000,
      "iss": 2001,
      "where": 2002,
      "drinking": 2003,
      "unch": 2004,
      "bright": 2005,
      "costum": 2006,
      "jump": 2007,
      "river": 2008,
      "chen": 2009,
      "It": 2010,
      "if": 2011,
      "wooden": 2012,
      "elderly": 2013,
      "pres": 2014,
      "str": 2015,
      "pul": 2016,
      "Bo": 2017,
      "fis": 2018,
      "shopping": 2019,
      "hang": 2020,
      "St": 2021,
      "ens": 2022,
      "both": 2023,
      "vol": 2024,
      "fin": 2025,
      "pract": 2026,
      "ned": 2027,
      "enjoying": 2028,
      "lot": 2029,
      "track": 2030,
      "between": 2031,
      "min": 2032,
      "surround": 2033,
      "painting": 2034,
      "ise": 2035,
      "ker": 2036,
      "put": 2037,
      "box": 2038,
      "busy": 2039,
      "event": 2040,
      "kitchen": 2041,
      "est": 2042,
      "incl": 2043,
      "door": 2044,
      "others": 2045,
      "school": 2046,
      "eat": 2047,
      "cell": 2048,
      "kick": 2049,
      "publ": 2050,
      "lead": 2051,
      "show": 2052,
      "towards": 2053,
      "brella": 2054,
      "smile": 2055,
      "umbrella": 2056,
      "mas": 2057,
      "fun": 2058,
      "Woman": 2059,
      "smo": 2060,
      "fence": 2061,
      "ms": 2062,
      "cour": 2063,
      "ious": 2064,
      "outf": 2065,
      "worker": 2066,
      "rope": 2067,
      "emp": 2068,
      "paint": 2069,
      "outdoor": 2070,
      "cent": 2071,
      "ash": 2072,
      "ins": 2073,
      "din": 2074,
      "len": 2075,
      "cket": 2076,
      "fall": 2077,
      "bot": 2078,
      "own": 2079,
      "dd": 2080,
      "temp": 2081,
      "cow": 2082,
      "guys": 2083,
      "made": 2084,
      "tro": 2085,
      "shing": 2086,
      "make": 2087,
      "cart": 2088,
      "Children": 2089,
      "Ro": 2090,
      "yard": 2091,
      "takes": 2092,
      "bor": 2093,
      "colorful": 2094,
      "18": 2095,
      "lau": 2096,
      "ctor": 2097,
      "view": 2098,
      "pi": 2099,
      "ven": 2100,
      "ckey": 2101,
      "ship": 2102,
      "hes": 2103,
      "path": 2104,
      "prote": 2105,
      "Someone": 2106,
      "sup": 2107,
      "couch": 2108,
      "drum": 2109,
      "human": 2110,
      "mach": 2111,
      "ron": 2112,
      "photogra": 2113,
      "self": 2114,
      "hats": 2115,
      "ridge": 2116,
      "ster": 2117,
      "ations": 2118,
      "sha": 2119,
      "happ": 2120,
      "son": 2121,
      "most": 2122,
      "before": 2123,
      "stair": 2124,
      "laugh": 2125,
      "arms": 2126,
      "what": 2127,
      "does": 2128,
      "try": 2129,
      "piece": 2130,
      "pos": 2131,
      "oc": 2132,
      "list": 2133,
      "mother": 2134,
      "inter": 2135,
      "feren": 2136,
      "Ne": 2137,
      "American": 2138,
      "colored": 2139,
      "stone": 2140,
      "driving": 2141,
      "med": 2142,
      "place": 2143,
      "right": 2144,
      "bird": 2145,
      "only": 2146,
      "any": 2147,
      "hard": 2148,
      "pet": 2149,
      "used": 2150,
      "lap": 2151,
      ".@": 2152,
      "@.@": 2153,
      "party": 2154,
      "pat": 2155,
      "lowing": 2156,
      "police": 2157,
      "take": 2158,
      "enter": 2159,
      "ions": 2160,
      "ults": 2161,
      "cra": 2162,
      "full": 2163,
      "ited": 2164,
      "ening": 2165,
      "shoes": 2166,
      "ones": 2167,
      "concer": 2168,
      "beside": 2169,
      "sweater": 2170,
      "pt": 2171,
      "left": 2172,
      "number": 2173,
      "offic": 2174,
      "someone": 2175,
      "break": 2176,
      "ls": 2177,
      "teen": 2178,
      "dire": 2179,
      "dance": 2180,
      "roller": 2181,
      "short": 2182,
      "includ": 2183,
      "stud": 2184,
      "todd": 2185,
      "201": 2186,
      "more": 2187,
      "racing": 2188,
      "cr": 2189,
      "fli": 2190,
      "fol": 2191,
      "tall": 2192,
      "stu": 2193,
      "attemp": 2194,
      "produ": 2195,
      "public": 2196,
      "snowboard": 2197,
      "sky": 2198,
      "brick": 2199,
      "paper": 2200,
      "fishing": 2201,
      "bridge": 2202,
      "catch": 2203,
      "ined": 2204,
      "song": 2205,
      "backpack": 2206,
      "wheel": 2207,
      "ope": 2208,
      "cooking": 2209,
      "gym": 2210,
      "preparing": 2211,
      "dies": 2212,
      "Un": 2213,
      "ken": 2214,
      "mem": 2215,
      "beard": 2216,
      "dist": 2217,
      "trick": 2218,
      "cri": 2219,
      "practic": 2220,
      "tank": 2221,
      "stop": 2222,
      "tent": 2223,
      "cted": 2224,
      "should": 2225,
      "abo": 2226,
      "surrounded": 2227,
      "cord": 2228,
      "vi": 2229,
      "well": 2230,
      "alone": 2231,
      "hic": 2232,
      "selling": 2233,
      "ending": 2234,
      "wi": 2235,
      "ium": 2236,
      "eng": 2237,
      "ual": 2238,
      "wed": 2239,
      "prepare": 2240,
      ",@": 2241,
      "@,@": 2242,
      "fish": 2243,
      "toddler": 2244,
      "onto": 2245,
      "gging": 2246,
      "vehic": 2247,
      "ring": 2248,
      "ye": 2249,
      "thered": 2250,
      "cause": 2251,
      "ris": 2252,
      "cess": 2253,
      "cellphone": 2254,
      "concert": 2255,
      "aged": 2256,
      "bur": 2257,
      "flowers": 2258,
      "scar": 2259,
      "gar": 2260,
      "pole": 2261,
      "hit": 2262,
      "ton": 2263,
      "cking": 2264,
      "site": 2265,
      "wr": 2266,
      "animal": 2267,
      "hanging": 2268,
      "stor": 2269,
      "stic": 2270,
      "squ": 2271,
      "gro": 2272,
      "gather": 2273,
      "bikes": 2274,
      "stra": 2275,
      "adults": 2276,
      "hockey": 2277,
      "above": 2278,
      "figh": 2279,
      "vide": 2280,
      "Afr": 2281,
      "carri": 2282,
      "ids": 2283,
      "outfit": 2284,
      "wet": 2285,
      "grassy": 2286,
      "cts": 2287,
      "metal": 2288,
      "rocks": 2289,
      "same": 2290,
      "ames": 2291,
      "que": 2292,
      "net": 2293,
      "equ": 2294,
      "pair": 2295,
      "hood": 2296,
      "works": 2297,
      "blo": 2298,
      "lad": 2299,
      "On": 2300,
      "ham": 2301,
      "cond": 2302,
      "tour": 2303,
      "wer": 2304,
      "bble": 2305,
      "pick": 2306,
      "vid": 2307,
      "bee": 2308,
      "ics": 2309,
      "tele": 2310,
      "pose": 2311,
      "pictures": 2312,
      "pot": 2313,
      "aking": 2314,
      "urch": 2315,
      "aut": 2316,
      "gan": 2317,
      "cture": 2318,
      "machine": 2319,
      "gun": 2320,
      "town": 2321,
      "cup": 2322,
      "gathered": 2323,
      "scen": 2324,
      "rail": 2325,
      "Five": 2326,
      "var": 2327,
      "audi": 2328,
      "kne": 2329,
      "present": 2330,
      "iti": 2331,
      "forest": 2332,
      "igh": 2333,
      "ety": 2334,
      "pit": 2335,
      "uniforms": 2336,
      "hot": 2337,
      "atta": 2338,
      "life": 2339,
      "char": 2340,
      "xing": 2341,
      "would": 2342,
      "doors": 2343,
      "father": 2344,
      "press": 2345,
      "sweat": 2346,
      "por": 2347,
      "steps": 2348,
      "ern": 2349,
      "than": 2350,
      "stat": 2351,
      "ery": 2352,
      "ballo": 2353,
      "flag": 2354,
      "leep": 2355,
      "competition": 2356,
      "ians": 2357,
      "iness": 2358,
      "video": 2359,
      "ub": 2360,
      "bec": 2361,
      "lan": 2362,
      "asleep": 2363,
      "subway": 2364,
      "ork": 2365,
      "instrument": 2366,
      "spec": 2367,
      "fru": 2368,
      "Many": 2369,
      "ref": 2370,
      "gen": 2371,
      "arch": 2372,
      "when": 2373,
      "drink": 2374,
      "stairs": 2375,
      "convers": 2376,
      "mber": 2377,
      "sunny": 2378,
      "ju": 2379,
      "uter": 2380,
      "fountain": 2381,
      "costume": 2382,
      "ular": 2383,
      "Ar": 2384,
      "New": 2385,
      "ric": 2386,
      "avy": 2387,
      "laughing": 2388,
      "cher": 2389,
      "smiles": 2390,
      "Women": 2391,
      "see": 2392,
      "cowboy": 2393,
      "gold": 2394,
      "ire": 2395,
      "sy": 2396,
      "mil": 2397,
      "gent": 2398,
      "roof": 2399,
      "snowy": 2400,
      "nor": 2401,
      "practicing": 2402,
      "few": 2403,
      "because": 2404,
      "skirt": 2405,
      "dif": 2406,
      "instruments": 2407,
      "empty": 2408,
      "plane": 2409,
      "ffic": 2410,
      "ient": 2411,
      "ative": 2412,
      "crowded": 2413,
      "audience": 2414,
      "ops": 2415,
      "throwing": 2416,
      "differen": 2417,
      "equip": 2418,
      "ished": 2419,
      "orses": 2420,
      "leaning": 2421,
      "ctive": 2422,
      "seated": 2423,
      "She": 2424,
      "putting": 2425,
      "gear": 2426,
      "computer": 2427,
      "arts": 2428,
      "dinner": 2429,
      "yclist": 2430,
      "ladies": 2431,
      "African": 2432,
      "Re": 2433,
      "mu": 2434,
      "wave": 2435,
      "trail": 2436,
      "volley": 2437,
      "unt": 2438,
      "giving": 2439,
      "De": 2440,
      "mod": 2441,
      "ature": 2442,
      "Con": 2443,
      "ason": 2444,
      "vehicle": 2445,
      "close": 2446,
      "Jo": 2447,
      "bers": 2448,
      "ident": 2449,
      "bottle": 2450,
      "ersey": 2451,
      "cleaning": 2452,
      "add": 2453,
      "parade": 2454,
      "scarf": 2455,
      "ator": 2456,
      "horses": 2457,
      "volleyball": 2458,
      "turn": 2459,
      "grill": 2460,
      "cir": 2461,
      "leap": 2462,
      "beer": 2463,
      "match": 2464,
      "business": 2465,
      "ural": 2466,
      "chairs": 2467,
      "asian": 2468,
      "bs": 2469,
      "tire": 2470,
      "object": 2471,
      "rist": 2472,
      "ational": 2473,
      "equipment": 2474,
      "station": 2475,
      "makes": 2476,
      "rap": 2477,
      "chasing": 2478,
      "appears": 2479,
      "cast": 2480,
      "oper": 2481,
      "different": 2482,
      "performs": 2483,
      "glo": 2484,
      "adult": 2485,
      "how": 2486,
      "cars": 2487,
      "ides": 2488,
      "leg": 2489,
      "cy": 2490,
      "sold": 2491,
      "good": 2492,
      "setting": 2493,
      "fighting": 2494,
      "corner": 2495,
      "ival": 2496,
      "At": 2497,
      "aching": 2498,
      "jersey": 2499,
      "offe": 2500,
      "wait": 2501,
      "nearby": 2502,
      "ized": 2503,
      "iding": 2504,
      "Gr": 2505,
      "shirtless": 2506,
      "happy": 2507,
      "ints": 2508,
      "key": 2509,
      "poses": 2510,
      "En": 2511,
      "pan": 2512,
      "eyes": 2513,
      "feet": 2514,
      "lay": 2515,
      "Al": 2516,
      "reg": 2517,
      "suits": 2518,
      "cig": 2519,
      "slide": 2520,
      "fight": 2521,
      "though": 2522,
      "Girl": 2523,
      "five": 2524,
      "leas": 2525,
      "kin": 2526,
      "row": 2527,
      "say": 2528,
      "rel": 2529,
      "amp": 2530,
      "cream": 2531,
      "Com": 2532,
      "ional": 2533,
      "bags": 2534,
      "ef": 2535,
      "goal": 2536,
      "nap": 2537,
      "scre": 2538,
      "country": 2539,
      "Do": 2540,
      "woods": 2541,
      "crete": 2542,
      "ran": 2543,
      "Ho": 2544,
      "fur": 2545,
      "ised": 2546,
      "indoors": 2547,
      "kno": 2548,
      "beaut": 2549,
      "skateboarder": 2550,
      "concrete": 2551,
      "fold": 2552,
      "ds": 2553,
      "sil": 2554,
      "smoking": 2555,
      "gentle": 2556,
      "winter": 2557,
      "ral": 2558,
      "posit": 2559,
      "cake": 2560,
      "itary": 2561,
      "partic": 2562,
      "wedding": 2563,
      "10": 2564,
      "elect": 2565,
      "war": 2566,
      "indi": 2567,
      "ger": 2568,
      "flying": 2569,
      "mart": 2570,
      "second": 2571,
      "including": 2572,
      "ering": 2573,
      "sports": 2574,
      "cele": 2575,
      "Le": 2576,
      "comple": 2577,
      "prof": 2578,
      "iful": 2579,
      "pushing": 2580,
      "cli": 2581,
      "dig": 2582,
      "rece": 2583,
      "graff": 2584,
      "celebr": 2585,
      "fruit": 2586,
      "rider": 2587,
      "dry": 2588,
      "church": 2589,
      "my": 2590,
      "Nobody": 2591,
      "els": 2592,
      "phones": 2593,
      "olf": 2594,
      "case": 2595,
      "dau": 2596,
      "main": 2597,
      "showing": 2598,
      "aret": 2599,
      "Indi": 2600,
      "moving": 2601,
      "vend": 2602,
      "offee": 2603,
      "pop": 2604,
      "court": 2605,
      "ki": 2606,
      "ators": 2607,
      "pher": 2608,
      "lunch": 2609,
      "newsp": 2610,
      "tat": 2611,
      "structure": 2612,
      "coming": 2613,
      "alley": 2614,
      "scope": 2615,
      "graffiti": 2616,
      "held": 2617,
      "shore": 2618,
      "painted": 2619,
      "playground": 2620,
      "uses": 2621,
      "coffee": 2622,
      "years": 2623,
      "sty": 2624,
      "distance": 2625,
      "van": 2626,
      "writing": 2627,
      "listening": 2628,
      "pon": 2629,
      "sport": 2630,
      "vice": 2631,
      "taken": 2632,
      "tin": 2633,
      "ghter": 2634,
      "199": 2635,
      "cigaret": 2636,
      "wears": 2637,
      "season": 2638,
      "rela": 2639,
      "beautiful": 2640,
      "reads": 2641,
      "buildings": 2642,
      "py": 2643,
      "bowling": 2644,
      "nic": 2645,
      "aren": 2646,
      "pup": 2647,
      "boots": 2648,
      "display": 2649,
      "plastic": 2650,
      "plaid": 2651,
      "students": 2652,
      "writ": 2653,
      "cover": 2654,
      "pri": 2655,
      "resting": 2656,
      "star": 2657,
      "leaves": 2658,
      "teams": 2659,
      "crossing": 2660,
      "forman": 2661,
      "gets": 2662,
      "mountains": 2663,
      "year": 2664,
      "log": 2665,
      "ert": 2666,
      "golf": 2667,
      "cutting": 2668,
      "talk": 2669,
      "hal": 2670,
      "har": 2671,
      "later": 2672,
      "edge": 2673,
      "bru": 2674,
      "dro": 2675,
      "mud": 2676,
      "ging": 2677,
      "sco": 2678,
      "ages": 2679,
      "eats": 2680,
      "ital": 2681,
      "statue": 2682,
      "drinks": 2683,
      "tattoo": 2684,
      "bucket": 2685,
      "shot": 2686,
      "filled": 2687,
      "veget": 2688,
      "don": 2689,
      "ible": 2690,
      "himself": 2691,
      "bum": 2692,
      "dec": 2693,
      "sweatshirt": 2694,
      "performan": 2695,
      "among": 2696,
      "meet": 2697,
      "record": 2698,
      "scene": 2699,
      "ramp": 2700,
      "Christ": 2701,
      "daughter": 2702,
      "ats": 2703,
      "flip": 2704,
      "ended": 2705,
      "sum": 2706,
      "bull": 2707,
      "pulling": 2708,
      "tries": 2709,
      "saf": 2710,
      "neck": 2711,
      "bath": 2712,
      "drums": 2713,
      "ghts": 2714,
      "test": 2715,
      "Mo": 2716,
      "Lo": 2717,
      "bathing": 2718,
      "releas": 2719,
      "lawn": 2720,
      "mill": 2721,
      "biker": 2722,
      "ese": 2723,
      "military": 2724,
      "cers": 2725,
      "bunch": 2726,
      "mir": 2727,
      "found": 2728,
      "ific": 2729,
      "card": 2730,
      "blan": 2731,
      "exam": 2732,
      "appro": 2733,
      "cigarette": 2734,
      "safety": 2735,
      "TV": 2736,
      "ather": 2737,
      "mall": 2738,
      "martial": 2739,
      "profess": 2740,
      "gaz": 2741,
      "Wh": 2742,
      "colle": 2743,
      "animals": 2744,
      "peri": 2745,
      "Kids": 2746,
      "ining": 2747,
      "bly": 2748,
      "bel": 2749,
      "club": 2750,
      "sim": 2751,
      "Co": 2752,
      "contain": 2753,
      "spect": 2754,
      "vert": 2755,
      "rode": 2756,
      "shi": 2757,
      "cand": 2758,
      "wrest": 2759,
      "individ": 2760,
      "then": 2761,
      "office": 2762,
      "design": 2763,
      "clown": 2764,
      "ising": 2765,
      "000": 2766,
      "skateboarding": 2767,
      "will": 2768,
      "seen": 2769,
      "clos": 2770,
      "io": 2771,
      "une": 2772,
      "surfer": 2773,
      "ities": 2774,
      "competing": 2775,
      "ends": 2776,
      "fan": 2777,
      "parked": 2778,
      "vision": 2779,
      "Gu": 2780,
      "gest": 2781,
      "obser": 2782,
      "comm": 2783,
      "ladder": 2784,
      "counter": 2785,
      "such": 2786,
      "12": 2787,
      "prepares": 2788,
      "za": 2789,
      "newspaper": 2790,
      "ried": 2791,
      "bubble": 2792,
      "gymn": 2793,
      "ina": 2794,
      "post": 2795,
      "den": 2796,
      "tran": 2797,
      "local": 2798,
      "protest": 2799,
      "talks": 2800,
      "care": 2801,
      "artist": 2802,
      "photograph": 2803,
      "Brit": 2804,
      "snowboarder": 2805,
      "wear": 2806,
      "ought": 2807,
      "point": 2808,
      "..": 2809,
      "gard": 2810,
      "rea": 2811,
      "games": 2812,
      "desk": 2813,
      "bb": 2814,
      "att": 2815,
      "carries": 2816,
      "Ger": 2817,
      "Mar": 2818,
      "ked": 2819,
      "ness": 2820,
      "gentleman": 2821,
      "tie": 2822,
      "allow": 2823,
      "performance": 2824,
      "pile": 2825,
      "ggles": 2826,
      "ings": 2827,
      "known": 2828,
      "hur": 2829,
      "kn": 2830,
      "parking": 2831,
      "cting": 2832,
      "scul": 2833,
      "blanket": 2834,
      "check": 2835,
      "vegetable": 2836,
      "ute": 2837,
      "items": 2838,
      "ier": 2839,
      "waits": 2840,
      "speaking": 2841,
      "move": 2842,
      "Nor": 2843,
      "vic": 2844,
      "vil": 2845,
      "project": 2846,
      "vo": 2847,
      "mult": 2848,
      "sof": 2849,
      "played": 2850,
      "ica": 2851,
      "aked": 2852,
      "film": 2853,
      "cons": 2854,
      "traffic": 2855,
      "sculp": 2856,
      "15": 2857,
      "16": 2858,
      "gloves": 2859,
      "dock": 2860,
      "fel": 2861,
      "various": 2862,
      "ette": 2863,
      "nel": 2864,
      "poss": 2865,
      "ctions": 2866,
      "pes": 2867,
      "dresses": 2868,
      "ually": 2869,
      "viol": 2870,
      "Lit": 2871,
      "ext": 2872,
      "spla": 2873,
      "lim": 2874,
      "grocer": 2875,
      "surfing": 2876,
      "oney": 2877,
      "decor": 2878,
      "fast": 2879,
      "diving": 2880,
      "costumes": 2881,
      "Old": 2882,
      "kers": 2883,
      "pointing": 2884,
      "ale": 2885,
      "rodeo": 2886,
      "Eng": 2887,
      "eth": 2888,
      "apron": 2889,
      "midair": 2890,
      "inese": 2891,
      "Be": 2892,
      "trad": 2893,
      "musical": 2894,
      "bare": 2895,
      "swinging": 2896,
      "clear": 2897,
      "kay": 2898,
      "ners": 2899,
      "eter": 2900,
      "series": 2901,
      "cliff": 2902,
      "shoulder": 2903,
      "eral": 2904,
      "ils": 2905,
      "vendor": 2906,
      "ince": 2907,
      "sea": 2908,
      "ury": 2909,
      "members": 2910,
      "facing": 2911,
      "called": 2912,
      "jackets": 2913,
      "album": 2914,
      "athon": 2915,
      "charact": 2916,
      "six": 2917,
      "bikin": 2918,
      "cuss": 2919,
      "did": 2920,
      "rocky": 2921,
      "staring": 2922,
      "ilt": 2923,
      "eling": 2924,
      "wife": 2925,
      "Little": 2926,
      "legs": 2927,
      "wind": 2928,
      "start": 2929,
      "loc": 2930,
      "third": 2931,
      "trun": 2932,
      "Aust": 2933,
      "pen": 2934,
      "particip": 2935,
      "These": 2936,
      "crying": 2937,
      "issing": 2938,
      "bla": 2939,
      "bald": 2940,
      "plat": 2941,
      "skiing": 2942,
      "ci": 2943,
      "itional": 2944,
      "17": 2945,
      "acher": 2946,
      "farm": 2947,
      "irth": 2948,
      "teenag": 2949,
      "younger": 2950,
      "balloon": 2951,
      "dio": 2952,
      "follow": 2953,
      "wel": 2954,
      "bowl": 2955,
      "shows": 2956,
      "US": 2957,
      "stret": 2958,
      "hn": 2959,
      "waves": 2960,
      "screen": 2961,
      "ico": 2962,
      "tricks": 2963,
      "wever": 2964,
      "fully": 2965,
      "York": 2966,
      "sad": 2967,
      "vent": 2968,
      "pus": 2969,
      "sem": 2970,
      "may": 2971,
      "lies": 2972,
      "ared": 2973,
      "meal": 2974,
      "skin": 2975,
      "clean": 2976,
      "cot": 2977,
      "kar": 2978,
      "zz": 2979,
      "order": 2980,
      "flower": 2981,
      "living": 2982,
      "Af": 2983,
      "histor": 2984,
      "def": 2985,
      "desert": 2986,
      "Wor": 2987,
      "ace": 2988,
      "Group": 2989,
      "ustom": 2990,
      "birth": 2991,
      "sled": 2992,
      "block": 2993,
      "30": 2994,
      "enjoy": 2995,
      "Boy": 2996,
      "fest": 2997,
      "position": 2998,
      "skier": 2999,
      "photographer": 3000,
      "conversation": 3001,
      "cold": 3002,
      "kicking": 3003,
      "laun": 3004,
      "clou": 3005,
      "hiking": 3006,
      "cording": 3007,
      "apan": 3008,
      "contin": 3009,
      "Indian": 3010,
      "foreground": 3011,
      "ek": 3012,
      "wards": 3013,
      "velop": 3014,
      "without": 3015,
      "could": 3016,
      "cement": 3017,
      "guard": 3018,
      "adium": 3019,
      "contro": 3020,
      "ror": 3021,
      "brother": 3022,
      "load": 3023,
      "marathon": 3024,
      "repair": 3025,
      "heavy": 3026,
      "tou": 3027,
      "fixing": 3028,
      "seem": 3029,
      "officer": 3030,
      "owner": 3031,
      "ns": 3032,
      "onlook": 3033,
      "garden": 3034,
      "helping": 3035,
      "Fris": 3036,
      "lear": 3037,
      "closed": 3038,
      "leans": 3039,
      "flags": 3040,
      "pical": 3041,
      "pret": 3042,
      "yclists": 3043,
      "mask": 3044,
      "money": 3045,
      "cafe": 3046,
      "tool": 3047,
      "won": 3048,
      "following": 3049,
      "wide": 3050,
      "cheer": 3051,
      "spra": 3052,
      "United": 3053,
      "violin": 3054,
      "goggles": 3055,
      "vests": 3056,
      "half": 3057,
      "gin": 3058,
      "aks": 3059,
      "discuss": 3060,
      "became": 3061,
      "John": 3062,
      "val": 3063,
      "attempting": 3064,
      "Frisbee": 3065,
      "east": 3066,
      "appear": 3067,
      "lined": 3068,
      "railing": 3069,
      "chef": 3070,
      "Fo": 3071,
      "nam": 3072,
      "streets": 3073,
      "dam": 3074,
      "bride": 3075,
      "fair": 3076,
      "late": 3077,
      "cla": 3078,
      "After": 3079,
      "gymnast": 3080,
      "Fe": 3081,
      "throw": 3082,
      "males": 3083,
      "course": 3084,
      "shovel": 3085,
      "these": 3086,
      "sings": 3087,
      "hun": 3088,
      "ann": 3089,
      "bit": 3090,
      "climbs": 3091,
      "For": 3092,
      "type": 3093,
      "classroom": 3094,
      "ister": 3095,
      "skating": 3096,
      "trash": 3097,
      "Ju": 3098,
      "suc": 3099,
      "paren": 3100,
      "single": 3101,
      "Japan": 3102,
      "sleeps": 3103,
      "early": 3104,
      "ption": 3105,
      "goes": 3106,
      "bra": 3107,
      "stream": 3108,
      "refle": 3109,
      "orig": 3110,
      "advert": 3111,
      "world": 3112,
      "musicians": 3113,
      "British": 3114,
      "fre": 3115,
      "spa": 3116,
      "rug": 3117,
      "support": 3118,
      "spectators": 3119,
      "cano": 3120,
      "descri": 3121,
      "purse": 3122,
      "bicycles": 3123,
      "turned": 3124,
      "picnic": 3125,
      "ivers": 3126,
      "epis": 3127,
      "leather": 3128,
      "professional": 3129,
      "state": 3130,
      "Six": 3131,
      "bikini": 3132,
      "onlookers": 3133,
      "lie": 3134,
      "lights": 3135,
      "signs": 3136,
      "throws": 3137,
      "scoo": 3138,
      "198": 3139,
      "fra": 3140,
      "Au": 3141,
      "stadium": 3142,
      "scooter": 3143,
      "infl": 3144,
      "books": 3145,
      "fro": 3146,
      "movie": 3147,
      "stem": 3148,
      "fing": 3149,
      "huge": 3150,
      "lu": 3151,
      "War": 3152,
      "cook": 3153,
      "sculpture": 3154,
      "194": 3155,
      "vegetables": 3156,
      "stroller": 3157,
      "still": 3158,
      "platform": 3159,
      "episod": 3160,
      "eds": 3161,
      "sort": 3162,
      "ledge": 3163,
      "musician": 3164,
      "Austral": 3165,
      "custom": 3166,
      "II": 3167,
      "surfboard": 3168,
      "garb": 3169,
      "ory": 3170,
      "last": 3171,
      "attire": 3172,
      "storm": 3173,
      "Chinese": 3174,
      "says": 3175,
      "mix": 3176,
      "karate": 3177,
      "Person": 3178,
      "washing": 3179,
      "hole": 3180,
      "ase": 3181,
      "shoo": 3182,
      "ived": 3183,
      "lab": 3184,
      "Black": 3185,
      "inte": 3186,
      "ilar": 3187,
      "ility": 3188,
      "help": 3189,
      "summer": 3190,
      "vac": 3191,
      "singer": 3192,
      "ets": 3193,
      "gian": 3194,
      "went": 3195,
      "ares": 3196,
      "develop": 3197,
      "faces": 3198,
      "toys": 3199,
      "style": 3200,
      "origin": 3201,
      "blowing": 3202,
      "ges": 3203,
      "jogging": 3204,
      "Christmas": 3205,
      "ech": 3206,
      "pian": 3207,
      "waving": 3208,
      "warm": 3209,
      "grand": 3210,
      "plate": 3211,
      "organ": 3212,
      "erc": 3213,
      "took": 3214,
      "hall": 3215,
      "drawing": 3216,
      "ose": 3217,
      "silver": 3218,
      "allen": 3219,
      "German": 3220,
      "urban": 3221,
      "windows": 3222,
      "jor": 3223,
      "seat": 3224,
      "figu": 3225,
      "tram": 3226,
      "began": 3227,
      "name": 3228,
      "May": 3229,
      "veling": 3230,
      "13": 3231,
      "ately": 3232,
      "tracks": 3233,
      "useum": 3234,
      "stuff": 3235,
      "50": 3236,
      "power": 3237,
      "prom": 3238,
      "rench": 3239,
      "birds": 3240,
      "drop": 3241,
      "birthday": 3242,
      "nice": 3243,
      "range": 3244,
      "Car": 3245,
      "gathering": 3246,
      "alls": 3247,
      "balan": 3248,
      "national": 3249,
      "exerc": 3250,
      "word": 3251,
      "naked": 3252,
      "points": 3253,
      "free": 3254,
      "century": 3255,
      "cau": 3256,
      "pour": 3257,
      "got": 3258,
      "197": 3259,
      "rolling": 3260,
      "sn": 3261,
      "vor": 3262,
      "tun": 3263,
      "electric": 3264,
      "iers": 3265,
      "ump": 3266,
      "gust": 3267,
      "runette": 3268,
      "relaxing": 3269,
      "television": 3270,
      "kissing": 3271,
      "iron": 3272,
      "coll": 3273,
      "coast": 3274,
      "laptop": 3275,
      "iled": 3276,
      "gover": 3277,
      "traditional": 3278,
      "196": 3279,
      "married": 3280,
      "sticks": 3281,
      "uals": 3282,
      "14": 3283,
      "fris": 3284,
      "meat": 3285,
      "performer": 3286,
      "cial": 3287,
      "piano": 3288,
      "bin": 3289,
      "mpic": 3290,
      "tered": 3291,
      "success": 3292,
      "estri": 3293,
      "center": 3294,
      "wrap": 3295,
      "circle": 3296,
      "eping": 3297,
      "tables": 3298,
      "ze": 3299,
      "tom": 3300,
      "said": 3301,
      "Eu": 3302,
      "sunset": 3303,
      "passing": 3304,
      "tail": 3305,
      "females": 3306,
      "Jan": 3307,
      "iet": 3308,
      "booth": 3309,
      "crit": 3310,
      "deep": 3311,
      "miss": 3312,
      "Col": 3313,
      "ude": 3314,
      "similar": 3315,
      "bubbles": 3316,
      "festival": 3317,
      "balloons": 3318,
      "dancers": 3319,
      "Po": 3320,
      "reli": 3321,
      "San": 3322,
      "Pro": 3323,
      "fly": 3324,
      "hy": 3325,
      "find": 3326,
      "City": 3327,
      "every": 3328,
      "bun": 3329,
      "unic": 3330,
      "things": 3331,
      "tion": 3332,
      "helmets": 3333,
      "trampo": 3334,
      "Ha": 3335,
      "west": 3336,
      "formation": 3337,
      "sleeve": 3338,
      "waters": 3339,
      "opening": 3340,
      "mirror": 3341,
      "trampoline": 3342,
      "cked": 3343,
      "digging": 3344,
      "ense": 3345,
      "until": 3346,
      "ape": 3347,
      "pond": 3348,
      "lost": 3349,
      "swings": 3350,
      "Construction": 3351,
      "airplane": 3352,
      "outfits": 3353,
      "posed": 3354,
      "best": 3355,
      "picking": 3356,
      "pier": 3357,
      "entertain": 3358,
      "Is": 3359,
      "live": 3360,
      "below": 3361,
      "ka": 3362,
      "saw": 3363,
      "super": 3364,
      "exp": 3365,
      "boats": 3366,
      "trunks": 3367,
      "km": 3368,
      "lympic": 3369,
      "frisbee": 3370,
      "Ma": 3371,
      "Can": 3372,
      "eding": 3373,
      "tar": 3374,
      "episode": 3375,
      "built": 3376,
      "ither": 3377,
      "bearded": 3378,
      "World": 3379,
      "craft": 3380,
      "tem": 3381,
      "heads": 3382,
      "logy": 3383,
      "grocery": 3384,
      "officers": 3385,
      "fied": 3386,
      "ampion": 3387,
      "wine": 3388,
      "va": 3389,
      "leaps": 3390,
      "hone": 3391,
      "thern": 3392,
      "Cro": 3393,
      "demon": 3394,
      "blow": 3395,
      "cru": 3396,
      "hen": 3397,
      "sus": 3398,
      "athlet": 3399,
      "brunette": 3400,
      "humans": 3401,
      "Mc": 3402,
      "lines": 3403,
      "To": 3404,
      "released": 3405,
      "ently": 3406,
      "control": 3407,
      "come": 3408,
      "lers": 3409,
      "continu": 3410,
      "giant": 3411,
      "Sh": 3412,
      "magaz": 3413,
      "balls": 3414,
      "rink": 3415,
      "kiss": 3416,
      "coats": 3417,
      "headphones": 3418,
      "must": 3419,
      "sta": 3420,
      "puppy": 3421,
      "eye": 3422,
      "dirty": 3423,
      "sliding": 3424,
      "ded": 3425,
      "parents": 3426,
      "11": 3427,
      "ision": 3428,
      "kneeling": 3429,
      "nar": 3430,
      "shown": 3431,
      "polit": 3432,
      "meeting": 3433,
      "pad": 3434,
      "makeup": 3435,
      "iles": 3436,
      "overlooking": 3437,
      "leaders": 3438,
      "South": 3439,
      "much": 3440,
      "North": 3441,
      "weather": 3442,
      "canoe": 3443,
      "fet": 3444,
      "ague": 3445,
      "nment": 3446,
      "drives": 3447,
      "fts": 3448,
      "Sep": 3449,
      "Work": 3450,
      "pil": 3451,
      "headed": 3452,
      "selves": 3453,
      "folding": 3454,
      "north": 3455,
      "August": 3456,
      "buying": 3457,
      "mi": 3458,
      "teacher": 3459,
      "doll": 3460,
      "itor": 3461,
      "graph": 3462,
      "resp": 3463,
      "job": 3464,
      "shoulders": 3465,
      "real": 3466,
      "nose": 3467,
      "placed": 3468,
      "pers": 3469,
      "yo": 3470,
      "falling": 3471,
      "rance": 3472,
      "fix": 3473,
      "themselves": 3474,
      "chain": 3475,
      "upside": 3476,
      "company": 3477,
      "activ": 3478,
      "brightly": 3479,
      "tember": 3480,
      "illing": 3481,
      "ses": 3482,
      "tack": 3483,
      "jugg": 3484,
      "character": 3485,
      "da": 3486,
      "exc": 3487,
      "September": 3488,
      "thin": 3489,
      "bran": 3490,
      "iple": 3491,
      "produce": 3492,
      "apers": 3493,
      "individuals": 3494,
      "Par": 3495,
      "dances": 3496,
      "final": 3497,
      "system": 3498,
      "cyclist": 3499,
      "million": 3500,
      "Li": 3501,
      "stro": 3502,
      "feat": 3503,
      "due": 3504,
      "straw": 3505,
      "hugging": 3506,
      "attempts": 3507,
      "hol": 3508,
      "Ste": 3509,
      "ali": 3510,
      "plants": 3511,
      "crew": 3512,
      "know": 3513,
      "cloth": 3514,
      "sandals": 3515,
      "attached": 3516,
      "lays": 3517,
      "demonstr": 3518,
      "ged": 3519,
      "catching": 3520,
      "kayak": 3521,
      "hus": 3522,
      "major": 3523,
      "enjoys": 3524,
      "great": 3525,
      "barefoot": 3526,
      "named": 3527,
      "museum": 3528,
      "favor": 3529,
      "padd": 3530,
      "you": 3531,
      "story": 3532,
      "complete": 3533,
      "Hu": 3534,
      "deck": 3535,
      "touching": 3536,
      "kind": 3537,
      "within": 3538,
      "hammer": 3539,
      "ically": 3540,
      "tax": 3541,
      "aw": 3542,
      "spital": 3543,
      "lift": 3544,
      "ony": 3545,
      "mob": 3546,
      "tropical": 3547,
      "All": 3548,
      "practice": 3549,
      "spo": 3550,
      "drive": 3551,
      "emplo": 3552,
      "ships": 3553,
      "July": 3554,
      "leading": 3555,
      "25": 3556,
      "ung": 3557,
      "kha": 3558,
      "yed": 3559,
      "deli": 3560,
      "celebrating": 3561,
      "ior": 3562,
      "tub": 3563,
      "member": 3564,
      "sale": 3565,
      "During": 3566,
      "vement": 3567,
      "Ri": 3568,
      "homeless": 3569,
      "reek": 3570,
      "walkway": 3571,
      "bank": 3572,
      "tit": 3573,
      "leash": 3574,
      "moved": 3575,
      "Gre": 3576,
      "fans": 3577,
      "device": 3578,
      "chases": 3579,
      "ino": 3580,
      "square": 3581,
      "ensive": 3582,
      "anna": 3583,
      "winning": 3584,
      "His": 3585,
      "groom": 3586,
      "here": 3587,
      "telescope": 3588,
      "colors": 3589,
      "sandy": 3590,
      "guns": 3591,
      "fer": 3592,
      "opposing": 3593,
      "since": 3594,
      "scu": 3595,
      "Japanese": 3596,
      "tel": 3597,
      "step": 3598,
      "atting": 3599,
      "mom": 3600,
      "invol": 3601,
      "reaching": 3602,
      "south": 3603,
      "pedestri": 3604,
      "ero": 3605,
      "libr": 3606,
      "soft": 3607,
      "either": 3608,
      "gry": 3609,
      "ways": 3610,
      "uddle": 3611,
      "training": 3612,
      "Workers": 3613,
      "cus": 3614,
      "ided": 3615,
      "However": 3616,
      "mor": 3617,
      "received": 3618,
      "ism": 3619,
      "Oc": 3620,
      "quar": 3621,
      "battle": 3622,
      "teenage": 3623,
      "hoop": 3624,
      "shooting": 3625,
      "June": 3626,
      "ference": 3627,
      "death": 3628,
      "0s": 3629,
      "States": 3630,
      "esta": 3631,
      "collar": 3632,
      "written": 3633,
      "Bl": 3634,
      "Pol": 3635,
      "sol": 3636,
      "teeth": 3637,
      "jam": 3638,
      "pal": 3639,
      "microscope": 3640,
      "Europe": 3641,
      "Bro": 3642,
      "fle": 3643,
      "mit": 3644,
      "wooded": 3645,
      "even": 3646,
      "gives": 3647,
      "bottom": 3648,
      "herself": 3649,
      "catches": 3650,
      "ters": 3651,
      "rent": 3652,
      "gate": 3653,
      "attent": 3654,
      "arri": 3655,
      "backyard": 3656,
      "experi": 3657,
      "ore": 3658,
      "finished": 3659,
      "dep": 3660,
      "crou": 3661,
      "Girls": 3662,
      "mess": 3663,
      "sal": 3664,
      "East": 3665,
      "image": 3666,
      "runners": 3667,
      "Bat": 3668,
      "carn": 3669,
      "runner": 3670,
      "space": 3671,
      "Lad": 3672,
      "fting": 3673,
      "tired": 3674,
      "pulled": 3675,
      "ney": 3676,
      "balcon": 3677,
      "sweeping": 3678,
      "pig": 3679,
      "scaf": 3680,
      "jects": 3681,
      "ered": 3682,
      "orting": 3683,
      "lor": 3684,
      "We": 3685,
      "ills": 3686,
      "leaping": 3687,
      "ution": 3688,
      "seven": 3689,
      "tv": 3690,
      "alk": 3691,
      "plant": 3692,
      "pitcher": 3693,
      "hospital": 3694,
      "camp": 3695,
      "dancer": 3696,
      "piz": 3697,
      "bul": 3698,
      "tech": 3699,
      "passes": 3700,
      "string": 3701,
      "establ": 3702,
      "Olympic": 3703,
      "ai": 3704,
      "covering": 3705,
      "raised": 3706,
      "climber": 3707,
      "fen": 3708,
      "sat": 3709,
      "sail": 3710,
      "government": 3711,
      "pin": 3712,
      "umbrellas": 3713,
      "action": 3714,
      "rollers": 3715,
      "moves": 3716,
      "fallen": 3717,
      "rack": 3718,
      "rema": 3719,
      "Stre": 3720,
      "uary": 3721,
      "checking": 3722,
      "surface": 3723,
      "White": 3724,
      "sleeved": 3725,
      "call": 3726,
      "atop": 3727,
      "print": 3728,
      "caught": 3729,
      "driver": 3730,
      "doorway": 3731,
      "Te": 3732,
      "porch": 3733,
      "ives": 3734,
      "vious": 3735,
      "indoor": 3736,
      "sewing": 3737,
      "ures": 3738,
      "direction": 3739,
      "dead": 3740,
      "puts": 3741,
      "gas": 3742,
      "learning": 3743,
      "happily": 3744,
      "belt": 3745,
      "kicks": 3746,
      "castle": 3747,
      "library": 3748,
      "matching": 3749,
      "neigh": 3750,
      "transport": 3751,
      "stuffed": 3752,
      "tober": 3753,
      "susp": 3754,
      "peace": 3755,
      "spot": 3756,
      "marching": 3757,
      "lish": 3758,
      "pipe": 3759,
      "villa": 3760,
      "pushes": 3761,
      "October": 3762,
      "Wil": 3763,
      "least": 3764,
      "inters": 3765,
      "passeng": 3766,
      "bread": 3767,
      "os": 3768,
      "lots": 3769,
      "husband": 3770,
      "Che": 3771,
      "chang": 3772,
      "teaching": 3773,
      "shallow": 3774,
      "illed": 3775,
      "bass": 3776,
      "date": 3777,
      "condu": 3778,
      "magazine": 3779,
      "isting": 3780,
      "accord": 3781,
      "hula": 3782,
      "tops": 3783,
      "tong": 3784,
      "ime": 3785,
      "wrestling": 3786,
      "iversity": 3787,
      "Je": 3788,
      "ied": 3789,
      "knit": 3790,
      "laundry": 3791,
      "Coun": 3792,
      "carnival": 3793,
      "lone": 3794,
      "want": 3795,
      "stunt": 3796,
      "tractor": 3797,
      "highway": 3798,
      "presentation": 3799,
      "King": 3800,
      "apart": 3801,
      "broken": 3802,
      "born": 3803,
      "garbage": 3804,
      "swims": 3805,
      "decorated": 3806,
      "scape": 3807,
      "soldiers": 3808,
      "iety": 3809,
      "hose": 3810,
      "neath": 3811,
      "tea": 3812,
      "railroad": 3813,
      "While": 3814,
      "engine": 3815,
      "\".": 3816,
      "wag": 3817,
      "change": 3818,
      "iven": 3819,
      "figure": 3820,
      "oute": 3821,
      "student": 3822,
      "juggling": 3823,
      "begin": 3824,
      "favorite": 3825,
      "balcony": 3826,
      "import": 3827,
      "love": 3828,
      "Ad": 3829,
      "report": 3830,
      "aling": 3831,
      "oon": 3832,
      "sequ": 3833,
      "speech": 3834,
      "floating": 3835,
      "flies": 3836,
      "candy": 3837,
      "teenagers": 3838,
      "lete": 3839,
      "quick": 3840,
      "cane": 3841,
      "came": 3842,
      "imes": 3843,
      "chase": 3844,
      "Ge": 3845,
      "verage": 3846,
      "accordion": 3847,
      "incre": 3848,
      "Ac": 3849,
      "onde": 3850,
      "period": 3851,
      "attention": 3852,
      "seems": 3853,
      "chan": 3854,
      "posite": 3855,
      "express": 3856,
      "trip": 3857,
      "pun": 3858,
      "pay": 3859,
      "tag": 3860,
      "cul": 3861,
      "rote": 3862,
      "labor": 3863,
      "shap": 3864,
      "weld": 3865,
      "compan": 3866,
      "rout": 3867,
      "inf": 3868,
      "chick": 3869,
      "racket": 3870,
      "pouring": 3871,
      "pizza": 3872,
      "never": 3873,
      "January": 3874,
      "those": 3875,
      "Music": 3876,
      "ige": 3877,
      "sent": 3878,
      "hoodie": 3879,
      "underneath": 3880,
      "mop": 3881,
      "dow": 3882,
      "beam": 3883,
      "West": 3884,
      "dust": 3885,
      "serving": 3886,
      "interse": 3887,
      "cop": 3888,
      "level": 3889,
      "ouble": 3890,
      "oppon": 3891,
      "ades": 3892,
      "comman": 3893,
      "nament": 3894,
      "sax": 3895,
      "ize": 3896,
      "falls": 3897,
      "wrote": 3898,
      "described": 3899,
      "ises": 3900,
      "buy": 3901,
      "obsta": 3902,
      "hitting": 3903,
      "...": 3904,
      "obstacle": 3905,
      "corn": 3906,
      "included": 3907,
      "ja": 3908,
      "studio": 3909,
      "thor": 3910,
      "ama": 3911,
      "speak": 3912,
      "cats": 3913,
      "French": 3914,
      "Ra": 3915,
      "airport": 3916,
      "visible": 3917,
      "Street": 3918,
      "opposite": 3919,
      "tell": 3920,
      "icolored": 3921,
      "advertise": 3922,
      "inning": 3923,
      "walls": 3924,
      "funny": 3925,
      "rac": 3926,
      "motorcycles": 3927,
      "khaki": 3928,
      "multicolored": 3929,
      "quest": 3930,
      "species": 3931,
      "blonde": 3932,
      "based": 3933,
      "model": 3934,
      "orn": 3935,
      "far": 3936,
      "moun": 3937,
      "button": 3938,
      "relax": 3939,
      "chest": 3940,
      "bad": 3941,
      "mans": 3942,
      "toss": 3943,
      "sleep": 3944,
      "bicyclist": 3945,
      "eleph": 3946,
      "illa": 3947,
      "vember": 3948,
      "acc": 3949,
      "mater": 3950,
      "curity": 3951,
      "located": 3952,
      "November": 3953,
      "Apr": 3954,
      "mag": 3955,
      "contra": 3956,
      "tunnel": 3957,
      "done": 3958,
      "travel": 3959,
      "robe": 3960,
      "acting": 3961,
      "army": 3962,
      "stead": 3963,
      "rollerbla": 3964,
      "Dog": 3965,
      "fresh": 3966,
      "April": 3967,
      "ampionship": 3968,
      "With": 3969,
      "sound": 3970,
      "inst": 3971,
      "patter": 3972,
      "leaving": 3973,
      "ax": 3974,
      "dish": 3975,
      "curb": 3976,
      "claim": 3977,
      "amer": 3978,
      "ever": 3979,
      "mural": 3980,
      "slides": 3981,
      "flight": 3982,
      "Canad": 3983,
      "gth": 3984,
      "ison": 3985,
      "feature": 3986,
      "tery": 3987,
      "athlete": 3988,
      "garage": 3989,
      "ank": 3990,
      "ophone": 3991,
      "soldier": 3992,
      "pped": 3993,
      "although": 3994,
      "sells": 3995,
      "goods": 3996,
      "rugby": 3997,
      "finger": 3998,
      "oud": 3999,
      "wning": 4000,
      "attack": 4001,
      "fighters": 4002,
      "By": 4003,
      "hour": 4004,
      "sou": 4005,
      "previous": 4006,
      "wrapped": 4007,
      "wild": 4008,
      "refe": 4009,
      "modern": 4010,
      "week": 4011,
      "polo": 4012,
      "Per": 4013,
      "bill": 4014,
      "ok": 4015,
      "thrown": 4016,
      "ider": 4017,
      "trans": 4018,
      "harness": 4019,
      "rew": 4020,
      "ously": 4021,
      "brush": 4022,
      "cil": 4023,
      "shoe": 4024,
      "sandw": 4025,
      "direct": 4026,
      "Dece": 4027,
      "24": 4028,
      "National": 4029,
      "Bra": 4030,
      "sen": 4031,
      "weight": 4032,
      "ull": 4033,
      "watched": 4034,
      "smoke": 4035,
      "keyboard": 4036,
      "zer": 4037,
      "cards": 4038,
      "tube": 4039,
      "guitars": 4040,
      "gers": 4041,
      "gue": 4042,
      "score": 4043,
      "100": 4044,
      "det": 4045,
      "puddle": 4046,
      "forward": 4047,
      "fell": 4048,
      "Bar": 4049,
      "pavement": 4050,
      "individual": 4051,
      "December": 4052,
      "muddy": 4053,
      "River": 4054,
      "gener": 4055,
      "March": 4056,
      "bathroom": 4057,
      "material": 4058,
      "hou": 4059,
      "lam": 4060,
      "mers": 4061,
      "month": 4062,
      "Wal": 4063,
      "zo": 4064,
      "given": 4065,
      "hay": 4066,
      "almost": 4067,
      "possi": 4068,
      "jean": 4069,
      "participating": 4070,
      "ties": 4071,
      "beige": 4072,
      "paints": 4073,
      "excited": 4074,
      "theater": 4075,
      "popul": 4076,
      "blocks": 4077,
      "college": 4078,
      "cool": 4079,
      "grilling": 4080,
      "unity": 4081,
      "195": 4082,
      "Ru": 4083,
      "formed": 4084,
      "ified": 4085,
      "ishing": 4086,
      "trum": 4087,
      "skinned": 4088,
      "fat": 4089,
      "alth": 4090,
      "Dogs": 4091,
      "splashing": 4092,
      "neighbor": 4093,
      "Gen": 4094,
      "riders": 4095,
      "isters": 4096,
      "stool": 4097,
      "Boys": 4098,
      "boxing": 4099,
      "Lady": 4100,
      "role": 4101,
      "carpet": 4102,
      "guitarist": 4103,
      "strong": 4104,
      "golden": 4105,
      "neckla": 4106,
      "When": 4107,
      "cloudy": 4108,
      "balancing": 4109,
      "mass": 4110,
      "inc": 4111,
      "sporting": 4112,
      "tee": 4113,
      "England": 4114,
      "mes": 4115,
      "force": 4116,
      "Div": 4117,
      "camou": 4118,
      "knee": 4119,
      "fabr": 4120,
      "non": 4121,
      "raft": 4122,
      "underwater": 4123,
      "tongue": 4124,
      "2012": 4125,
      "yal": 4126,
      "ondon": 4127,
      "photos": 4128,
      "stay": 4129,
      "reaches": 4130,
      "stack": 4131,
      "tage": 4132,
      "skis": 4133,
      "turning": 4134,
      "days": 4135,
      "speaks": 4136,
      "lands": 4137,
      "portra": 4138,
      "pony": 4139,
      "ane": 4140,
      "security": 4141,
      "upon": 4142,
      "23": 4143,
      "teenager": 4144,
      "history": 4145,
      "speed": 4146,
      "ata": 4147,
      "cere": 4148,
      "return": 4149,
      "scri": 4150,
      "bear": 4151,
      "infant": 4152,
      "La": 4153,
      "stares": 4154,
      "paved": 4155,
      "crosswalk": 4156,
      "goalie": 4157,
      "denim": 4158,
      "overalls": 4159,
      "tory": 4160,
      "wheelchair": 4161,
      "rub": 4162,
      "grey": 4163,
      "mobile": 4164,
      "2008": 4165,
      "ana": 4166,
      "English": 4167,
      ".\"": 4168,
      "fect": 4169,
      "sheet": 4170,
      "attempt": 4171,
      "intersection": 4172,
      "attra": 4173,
      "chalk": 4174,
      "28": 4175,
      "saur": 4176,
      "current": 4177,
      "State": 4178,
      "tight": 4179,
      "compete": 4180,
      "ured": 4181,
      "fort": 4182,
      "contest": 4183,
      "fed": 4184,
      "formal": 4185,
      "193": 4186,
      "26": 4187,
      "London": 4188,
      "boun": 4189,
      "service": 4190,
      "uters": 4191,
      "Mex": 4192,
      "trumpet": 4193,
      "21": 4194,
      "protective": 4195,
      "sofa": 4196,
      "rollersk": 4197,
      "youth": 4198,
      "multiple": 4199,
      "taxi": 4200,
      "ceremon": 4201,
      "ky": 4202,
      "shoot": 4203,
      "2010": 4204,
      "vacation": 4205,
      "original": 4206,
      "tw": 4207,
      "surrounding": 4208,
      "shel": 4209,
      "supp": 4210,
      "served": 4211,
      "Every": 4212,
      "bars": 4213,
      "biking": 4214,
      "quet": 4215,
      "continued": 4216,
      "wagon": 4217,
      "Small": 4218,
      "ere": 4219,
      "ears": 4220,
      "ened": 4221,
      "oring": 4222,
      "ilst": 4223,
      "bling": 4224,
      "fisher": 4225,
      "Army": 4226,
      "rat": 4227,
      "often": 4228,
      "rests": 4229,
      "swimsuit": 4230,
      "ioned": 4231,
      "tools": 4232,
      "important": 4233,
      "chess": 4234,
      "quickly": 4235,
      "bandanna": 4236,
      "result": 4237,
      "shaving": 4238,
      "papers": 4239,
      "ston": 4240,
      "America": 4241,
      "songs": 4242,
      "tourists": 4243,
      "customers": 4244,
      "softball": 4245,
      "cone": 4246,
      "forces": 4247,
      "bottles": 4248,
      "give": 4249,
      "hits": 4250,
      "poor": 4251,
      "foreign": 4252,
      "rican": 4253,
      "wered": 4254,
      "landscape": 4255,
      "mel": 4256,
      "further": 4257,
      "frame": 4258,
      "whilst": 4259,
      "Inter": 4260,
      "flu": 4261,
      "tournament": 4262,
      "chop": 4263,
      "poles": 4264,
      "lood": 4265,
      "destro": 4266,
      "gious": 4267,
      "Bri": 4268,
      "nature": 4269,
      "need": 4270,
      "Church": 4271,
      "cept": 4272,
      "shaped": 4273,
      "Spe": 4274,
      "hop": 4275,
      "sets": 4276,
      "Park": 4277,
      "Ser": 4278,
      "native": 4279,
      "hiker": 4280,
      "ivil": 4281,
      "fit": 4282,
      "amuse": 4283,
      "waterfall": 4284,
      "flage": 4285,
      "hooded": 4286,
      "Soc": 4287,
      "ae": 4288,
      "ahead": 4289,
      "arena": 4290,
      "words": 4291,
      "downtown": 4292,
      "former": 4293,
      "anti": 4294,
      "slope": 4295,
      "camouflage": 4296,
      "Don": 4297,
      "pajam": 4298,
      "smaller": 4299,
      "lent": 4300,
      "oci": 4301,
      "performers": 4302,
      "official": 4303,
      "coach": 4304,
      "snowboarding": 4305,
      "employe": 4306,
      "oral": 4307,
      "blouse": 4308,
      "times": 4309,
      "tured": 4310,
      "Mon": 4311,
      "fash": 4312,
      "whee": 4313,
      "pulls": 4314,
      "referee": 4315,
      "dad": 4316,
      "treat": 4317,
      "ctors": 4318,
      "choir": 4319,
      "village": 4320,
      "Ear": 4321,
      "Go": 4322,
      "si": 4323,
      "ret": 4324,
      "rol": 4325,
      "quiet": 4326,
      "helps": 4327,
      "boxes": 4328,
      "ipes": 4329,
      "scuba": 4330,
      "pies": 4331,
      "liqu": 4332,
      "float": 4333,
      "curly": 4334,
      "finish": 4335,
      "slow": 4336,
      "separ": 4337,
      "feeding": 4338,
      "pieces": 4339,
      "popular": 4340,
      "reach": 4341,
      "lane": 4342,
      "2009": 4343,
      "becue": 4344,
      "amusement": 4345,
      "wants": 4346,
      "exhi": 4347,
      "dom": 4348,
      "nit": 4349,
      "ries": 4350,
      "provid": 4351,
      "cricket": 4352,
      "sne": 4353,
      "note": 4354,
      "common": 4355,
      "wake": 4356,
      "27": 4357,
      "heels": 4358,
      "shade": 4359,
      "comes": 4360,
      "vehicles": 4361,
      "cheerleaders": 4362,
      "Me": 4363,
      "ading": 4364,
      "died": 4365,
      "gram": 4366,
      "barbecue": 4367,
      "leader": 4368,
      "american": 4369,
      "Division": 4370,
      "gress": 4371,
      "navy": 4372,
      "orient": 4373,
      "tower": 4374,
      "olog": 4375,
      "sister": 4376,
      "nur": 4377,
      "ara": 4378,
      "stars": 4379,
      "repairing": 4380,
      "Tour": 4381,
      "moon": 4382,
      "patient": 4383,
      "saxophone": 4384,
      "egg": 4385,
      "sword": 4386,
      "ike": 4387,
      "touch": 4388,
      "retri": 4389,
      "career": 4390,
      "fabric": 4391,
      "cel": 4392,
      "ales": 4393,
      "wetsuit": 4394,
      "carry": 4395,
      "Min": 4396,
      "section": 4397,
      "haw": 4398,
      "hallway": 4399,
      "musta": 4400,
      "sidered": 4401,
      "shoveling": 4402,
      "social": 4403,
      "gave": 4404,
      "mostly": 4405,
      "followed": 4406,
      "religious": 4407,
      "scaffolding": 4408,
      "ford": 4409,
      "eastern": 4410,
      "elephant": 4411,
      "sex": 4412,
      "cheering": 4413,
      "sug": 4414,
      "balance": 4415,
      "drummer": 4416,
      "directions": 4417,
      "saying": 4418,
      "rang": 4419,
      "poster": 4420,
      "2007": 4421,
      "special": 4422,
      "pedestrians": 4423,
      "Am": 4424,
      "conference": 4425,
      "author": 4426,
      "xim": 4427,
      "atable": 4428,
      "nothing": 4429,
      "considered": 4430,
      "And": 4431,
      "fetch": 4432,
      "ggage": 4433,
      "brothers": 4434,
      "law": 4435,
      "checkered": 4436,
      "22": 4437,
      "Scot": 4438,
      "hotel": 4439,
      "electron": 4440,
      "quarter": 4441,
      "eight": 4442,
      "odd": 4443,
      "practices": 4444,
      "recorded": 4445,
      "So": 4446,
      "crosses": 4447,
      "release": 4448,
      "luggage": 4449,
      "Har": 4450,
      "spray": 4451,
      "exercise": 4452,
      "ience": 4453,
      "angry": 4454,
      "thought": 4455,
      "computers": 4456,
      "akers": 4457,
      "Du": 4458,
      "Mich": 4459,
      "sheep": 4460,
      "heart": 4461,
      "traveling": 4462,
      "University": 4463,
      "Santa": 4464,
      "indust": 4465,
      "swimmer": 4466,
      "suggest": 4467,
      "zen": 4468,
      "possibly": 4469,
      "bending": 4470,
      "mal": 4471,
      "emb": 4472,
      "banner": 4473,
      "ricane": 4474,
      "29": 4475,
      "Ex": 4476,
      "hangs": 4477,
      "Ed": 4478,
      "hound": 4479,
      "orche": 4480,
      "factor": 4481,
      "gradu": 4482,
      "stit": 4483,
      "ender": 4484,
      "process": 4485,
      "objects": 4486,
      "staircase": 4487,
      "examining": 4488,
      "inflatable": 4489,
      "rubber": 4490,
      "Ba": 4491,
      "broom": 4492,
      "tents": 4493,
      "flat": 4494,
      "conversing": 4495,
      "pajamas": 4496,
      "constru": 4497,
      "ell": 4498,
      "backpacks": 4499,
      "snack": 4500,
      "gged": 4501,
      "become": 4502,
      "neighborhood": 4503,
      "Cor": 4504,
      "Red": 4505,
      "tied": 4506,
      "particular": 4507,
      "protesting": 4508,
      "Her": 4509,
      "sprink": 4510,
      "evening": 4511,
      "palm": 4512,
      "increas": 4513,
      "sandwich": 4514,
      "Air": 4515,
      "performed": 4516,
      "udd": 4517,
      "opponent": 4518,
      "oes": 4519,
      "doctor": 4520,
      "adjust": 4521,
      "bert": 4522,
      "Guy": 4523,
      "pite": 4524,
      "casian": 4525,
      "phed": 4526,
      "grind": 4527,
      "Brown": 4528,
      "wheels": 4529,
      "observing": 4530,
      "routine": 4531,
      "lat": 4532,
      "tic": 4533,
      "dium": 4534,
      "Older": 4535,
      "wea": 4536,
      "container": 4537,
      "passed": 4538,
      "discussing": 4539,
      "lip": 4540,
      "operating": 4541,
      "haircut": 4542,
      "political": 4543,
      "Fran": 4544,
      "policeman": 4545,
      "Australian": 4546,
      "lightly": 4547,
      "version": 4548,
      "machin": 4549,
      "pitch": 4550,
      "Mid": 4551,
      "eks": 4552,
      "reme": 4553,
      "title": 4554,
      "itors": 4555,
      "dishes": 4556,
      "serve": 4557,
      "cycl": 4558,
      "ues": 4559,
      "chicken": 4560,
      "novel": 4561,
      "affe": 4562,
      "inten": 4563,
      "2011": 4564,
      "pointed": 4565,
      "40": 4566,
      "towel": 4567,
      "aming": 4568,
      "ballet": 4569,
      "avo": 4570,
      "bent": 4571,
      "cyclists": 4572,
      "total": 4573,
      "escal": 4574,
      "ict": 4575,
      "talion": 4576,
      "bikers": 4577,
      "brief": 4578,
      "branch": 4579,
      "ib": 4580,
      "Jack": 4581,
      "hig": 4582,
      "nu": 4583,
      "podium": 4584,
      "splashe": 4585,
      "interest": 4586,
      "El": 4587,
      "text": 4588,
      "attending": 4589,
      "semble": 4590,
      "Geor": 4591,
      "clad": 4592,
      "ife": 4593,
      "argu": 4594,
      "Char": 4595,
      "conne": 4596,
      "aff": 4597,
      "notes": 4598,
      "machinery": 4599,
      "views": 4600,
      "Or": 4601,
      "vin": 4602,
      "Here": 4603,
      "partment": 4604,
      "casual": 4605,
      "tattoos": 4606,
      "unicycle": 4607,
      "transportation": 4608,
      "creating": 4609,
      "production": 4610,
      "antic": 4611,
      "published": 4612,
      "stopped": 4613,
      "aches": 4614,
      "gn": 4615,
      "ora": 4616,
      "emer": 4617,
      "opened": 4618,
      "ights": 4619,
      "bound": 4620,
      "cou": 4621,
      "sides": 4622,
      "share": 4623,
      "foc": 4624,
      "skater": 4625,
      "assist": 4626,
      "oriental": 4627,
      "Pr": 4628,
      "nd": 4629,
      "requ": 4630,
      "socks": 4631,
      "hikers": 4632,
      "mate": 4633,
      "steep": 4634,
      "polka": 4635,
      "Bu": 4636,
      "Sup": 4637,
      "rier": 4638,
      "mates": 4639,
      "announ": 4640,
      "ination": 4641,
      "however": 4642,
      "cape": 4643,
      "crossed": 4644,
      "Road": 4645,
      "scient": 4646,
      "coaster": 4647,
      "Pa": 4648,
      "drag": 4649,
      "High": 4650,
      "Squ": 4651,
      "iff": 4652,
      "broad": 4653,
      "surg": 4654,
      "bruary": 4655,
      "February": 4656,
      "gl": 4657,
      "jockey": 4658,
      "Although": 4659,
      "wl": 4660,
      "Roman": 4661,
      "started": 4662,
      "lin": 4663,
      "umn": 4664,
      "cuts": 4665,
      "pull": 4666,
      "narrow": 4667,
      "sisters": 4668,
      "2006": 4669,
      "Australia": 4670,
      "BM": 4671,
      "entrance": 4672,
      "meas": 4673,
      "pillow": 4674,
      "Des": 4675,
      "advertisement": 4676,
      "Dan": 4677,
      "carriage": 4678,
      "morning": 4679,
      "ik": 4680,
      "theast": 4681,
      "ago": 4682,
      "ipping": 4683,
      "straight": 4684,
      "bbing": 4685,
      "Sci": 4686,
      "zy": 4687,
      "ald": 4688,
      "ord": 4689,
      "whom": 4690,
      "motion": 4691,
      "wire": 4692,
      "loading": 4693,
      "Ital": 4694,
      "RA": 4695,
      "sts": 4696,
      "shaking": 4697,
      "athletic": 4698,
      "According": 4699,
      "orchestra": 4700,
      "Dy": 4701,
      "really": 4702,
      "recording": 4703,
      "dered": 4704,
      "vation": 4705,
      "jumped": 4706,
      "joy": 4707,
      "jerseys": 4708,
      "Fire": 4709,
      "hous": 4710,
      "ashing": 4711,
      "ount": 4712,
      "floral": 4713,
      "include": 4714,
      "newly": 4715,
      "miles": 4716,
      "item": 4717,
      "groups": 4718,
      "occur": 4719,
      "characters": 4720,
      "Miss": 4721,
      "You": 4722,
      "oda": 4723,
      "entire": 4724,
      "photographed": 4725,
      "vas": 4726,
      "backs": 4727,
      "mus": 4728,
      "benches": 4729,
      "activity": 4730,
      "jet": 4731,
      "handing": 4732,
      "patio": 4733,
      "League": 4734,
      "mechan": 4735,
      "puck": 4736,
      "Star": 4737,
      "stretched": 4738,
      "eas": 4739,
      "gall": 4740,
      "reflective": 4741,
      "Day": 4742,
      "thum": 4743,
      "jewel": 4744,
      "length": 4745,
      "knife": 4746,
      "ceremony": 4747,
      "geons": 4748,
      "neon": 4749,
      "Dav": 4750,
      "necklace": 4751,
      "creek": 4752,
      "kite": 4753,
      "ray": 4754,
      "mission": 4755,
      "recent": 4756,
      "ences": 4757,
      "map": 4758,
      "else": 4759,
      "stripes": 4760,
      "hom": 4761,
      "news": 4762,
      "produced": 4763,
      "apartment": 4764,
      "General": 4765,
      "hawk": 4766,
      "hip": 4767,
      "sele": 4768,
      "likes": 4769,
      "reported": 4770,
      "mustache": 4771,
      "factory": 4772,
      "izing": 4773,
      "racet": 4774,
      "arn": 4775,
      "sear": 4776,
      "shower": 4777,
      "caps": 4778,
      "Sun": 4779,
      "proble": 4780,
      "hil": 4781,
      "pump": 4782,
      "stroll": 4783,
      "starting": 4784,
      "brushing": 4785,
      "NY": 4786,
      "raising": 4787,
      "cobble": 4788,
      "acou": 4789,
      "racetrack": 4790,
      "island": 4791,
      "Play": 4792,
      "information": 4793,
      "bell": 4794,
      "welding": 4795,
      "cep": 4796,
      "rial": 4797,
      "spir": 4798,
      "marketplace": 4799,
      "doesn": 4800,
      "fingers": 4801,
      "fisherman": 4802,
      "pipes": 4803,
      "accident": 4804,
      "Sy": 4805,
      "ribb": 4806,
      "mini": 4807,
      "cular": 4808,
      "rons": 4809,
      "victory": 4810,
      "award": 4811,
      "domin": 4812,
      "atory": 4813,
      "acoustic": 4814,
      "tick": 4815,
      "tric": 4816,
      "firetruck": 4817,
      "ificant": 4818,
      "skates": 4819,
      "boardwalk": 4820,
      "motorbike": 4821,
      "motorcyclist": 4822,
      "Foot": 4823,
      "today": 4824,
      "lifting": 4825,
      "gins": 4826,
      "skateboards": 4827,
      "resident": 4828,
      "occup": 4829,
      "double": 4830,
      "sink": 4831,
      "inju": 4832,
      "plaza": 4833,
      "radio": 4834,
      "search": 4835,
      "reached": 4836,
      "sneakers": 4837,
      "maroon": 4838,
      "rainbow": 4839,
      "Seven": 4840,
      "Fin": 4841,
      "spar": 4842,
      "rowing": 4843,
      "beverage": 4844,
      "active": 4845,
      "venue": 4846,
      "nat": 4847,
      "lower": 4848,
      "utes": 4849,
      "fighter": 4850,
      "athletes": 4851,
      "returned": 4852,
      "loss": 4853,
      "spread": 4854,
      "camping": 4855,
      "pretty": 4856,
      "developed": 4857,
      "suspended": 4858,
      "Rich": 4859,
      "mound": 4860,
      "parach": 4861,
      "ager": 4862,
      "catcher": 4863,
      "paddling": 4864,
      "60": 4865,
      "shav": 4866,
      "Grand": 4867,
      "photographs": 4868,
      "ligh": 4869,
      "laughs": 4870,
      "squatting": 4871,
      "groceries": 4872,
      "bone": 4873,
      "eu": 4874,
      "nav": 4875,
      "slightly": 4876,
      "cooks": 4877,
      "races": 4878,
      "cones": 4879,
      "commer": 4880,
      "tas": 4881,
      "jewelry": 4882,
      "significant": 4883,
      "rings": 4884,
      "influ": 4885,
      "bean": 4886,
      "liam": 4887,
      "headband": 4888,
      "duck": 4889,
      "viewing": 4890,
      "sym": 4891,
      "ceiling": 4892,
      "bring": 4893,
      "pine": 4894,
      "killed": 4895,
      "once": 4896,
      "ief": 4897,
      "intro": 4898,
      "drawn": 4899,
      "loom": 4900,
      "artists": 4901,
      "decided": 4902,
      "Sa": 4903,
      "nal": 4904,
      "lared": 4905,
      "dot": 4906,
      "larger": 4907,
      "community": 4908,
      "critic": 4909,
      "Sim": 4910,
      "heav": 4911,
      "belong": 4912,
      "moment": 4913,
      "whose": 4914,
      "colate": 4915,
      "baskets": 4916,
      "earli": 4917,
      "customer": 4918,
      "William": 4919,
      "passengers": 4920,
      "niture": 4921,
      "Ten": 4922,
      "robes": 4923,
      "sharing": 4924,
      "racer": 4925,
      "beli": 4926,
      "rubs": 4927,
      "bedroom": 4928,
      "escalator": 4929,
      "boarder": 4930,
      "rows": 4931,
      "stove": 4932,
      "Football": 4933,
      "Hal": 4934,
      "dim": 4935,
      "stated": 4936,
      "China": 4937,
      "dining": 4938,
      "syn": 4939,
      "fancy": 4940,
      "location": 4941,
      "Lar": 4942,
      "paign": 4943,
      "puppies": 4944,
      "liquid": 4945,
      "ram": 4946,
      "diffic": 4947,
      "flute": 4948,
      "felt": 4949,
      "Police": 4950,
      "Som": 4951,
      "cleans": 4952,
      "France": 4953,
      "Pen": 4954,
      "apple": 4955,
      "backwards": 4956,
      "plates": 4957,
      "studying": 4958,
      "features": 4959,
      "BC": 4960,
      "areas": 4961,
      "2013": 4962,
      "napping": 4963,
      "hon": 4964,
      "mur": 4965,
      "tempor": 4966,
      "population": 4967,
      "Mor": 4968,
      "wit": 4969,
      "fruits": 4970,
      "sized": 4971,
      "loween": 4972,
      "heading": 4973,
      "created": 4974,
      "Tur": 4975,
      "inated": 4976,
      "impro": 4977,
      "tourist": 4978,
      "possible": 4979,
      "afr": 4980,
      "review": 4981,
      "medical": 4982,
      "variety": 4983,
      "involved": 4984,
      "leaf": 4985,
      "phys": 4986,
      "borne": 4987,
      "route": 4988,
      "placing": 4989,
      "redheaded": 4990,
      "barber": 4991,
      "ization": 4992,
      "batter": 4993,
      "completely": 4994,
      "Port": 4995,
      "depic": 4996,
      "handstand": 4997,
      "completed": 4998,
      "introdu": 4999,
      "Tall": 5000,
      "steel": 5001,
      "numbers": 5002,
      "auto": 5003,
      "engaged": 5004,
      "milk": 5005,
      "clap": 5006,
      "farmer": 5007,
      "explo": 5008,
      "depend": 5009,
      "billboard": 5010,
      "dun": 5011,
      "dump": 5012,
      "lock": 5013,
      "host": 5014,
      "skirts": 5015,
      "boarding": 5016,
      "throughout": 5017,
      "worked": 5018,
      "shops": 5019,
      "furniture": 5020,
      "folded": 5021,
      "ungle": 5022,
      "erous": 5023,
      "ards": 5024,
      "wai": 5025,
      "langu": 5026,
      "deter": 5027,
      "ances": 5028,
      "artwork": 5029,
      "monu": 5030,
      "troops": 5031,
      "region": 5032,
      "az": 5033,
      "mm": 5034,
      "keep": 5035,
      "carving": 5036,
      "aging": 5037,
      "ffy": 5038,
      "Blond": 5039,
      "advan": 5040,
      "soon": 5041,
      "push": 5042,
      "related": 5043,
      "Comp": 5044,
      "Ber": 5045,
      "Song": 5046,
      "tray": 5047,
      "biting": 5048,
      "instead": 5049,
      "thed": 5050,
      "lamp": 5051,
      "handle": 5052,
      "displaying": 5053,
      "chocolate": 5054,
      "butter": 5055,
      "memor": 5056,
      "ni": 5057,
      "itions": 5058,
      "Olympics": 5059,
      "cult": 5060,
      "beat": 5061,
      "poem": 5062,
      "forms": 5063,
      "danger": 5064,
      "hurdle": 5065,
      "civil": 5066,
      "blur": 5067,
      "fantry": 5068,
      "County": 5069,
      "houses": 5070,
      "begins": 5071,
      "umber": 5072,
      "science": 5073,
      "development": 5074,
      "represent": 5075,
      "raining": 5076,
      "fourth": 5077,
      "Bur": 5078,
      "reco": 5079,
      "mail": 5080,
      "scored": 5081,
      "stain": 5082,
      "championship": 5083,
      "rabb": 5084,
      "hike": 5085,
      "190": 5086,
      "program": 5087,
      "strange": 5088,
      "stern": 5089,
      "ponytail": 5090,
      "Fed": 5091,
      "hiding": 5092,
      "chi": 5093,
      "elev": 5094,
      "smokes": 5095,
      "uc": 5096,
      "events": 5097,
      "donkey": 5098,
      "caused": 5099,
      "bene": 5100,
      "petting": 5101,
      "clouds": 5102,
      "lic": 5103,
      "fif": 5104,
      "famous": 5105,
      "blows": 5106,
      "arc": 5107,
      "waist": 5108,
      "cage": 5109,
      "extreme": 5110,
      "wish": 5111,
      "established": 5112,
      "Ca": 5113,
      "gal": 5114,
      "stops": 5115,
      "Humans": 5116,
      "aim": 5117,
      "staff": 5118,
      "gown": 5119,
      "marked": 5120,
      "European": 5121,
      "african": 5122,
      "ATV": 5123,
      "gade": 5124,
      "jungle": 5125,
      "soda": 5126,
      "bies": 5127,
      "sticking": 5128,
      "jumpsuit": 5129,
      "turns": 5130,
      "Cam": 5131,
      "itself": 5132,
      "tug": 5133,
      "exercising": 5134,
      "zing": 5135,
      "gravel": 5136,
      "expla": 5137,
      "fenced": 5138,
      "eps": 5139,
      "backdrop": 5140,
      "spinning": 5141,
      "BMX": 5142,
      "mis": 5143,
      "aircraft": 5144,
      "gift": 5145,
      "relation": 5146,
      "pillar": 5147,
      "Pri": 5148,
      "rical": 5149,
      "remain": 5150,
      "trim": 5151,
      "burning": 5152,
      "issu": 5153,
      "league": 5154,
      "lia": 5155,
      "appeared": 5156,
      "eras": 5157,
      "chatting": 5158,
      "whis": 5159,
      "lips": 5160,
      "surpr": 5161,
      "tux": 5162,
      "andon": 5163,
      "sees": 5164,
      "candles": 5165,
      "Fri": 5166,
      "names": 5167,
      "spon": 5168,
      "bushes": 5169,
      "better": 5170,
      "Both": 5171,
      "Company": 5172,
      "Fam": 5173,
      "thus": 5174,
      "parti": 5175,
      "enders": 5176,
      "proper": 5177,
      "stretching": 5178,
      "jud": 5179,
      "rather": 5180,
      "winds": 5181,
      "Ire": 5182,
      "blood": 5183,
      "shar": 5184,
      "Ange": 5185,
      "isted": 5186,
      "designed": 5187,
      "Everyone": 5188,
      "Stud": 5189,
      "James": 5190,
      "tex": 5191,
      "teal": 5192,
      "checks": 5193,
      "calm": 5194,
      "writer": 5195,
      "chased": 5196,
      "Rock": 5197,
      "circus": 5198,
      "Dylan": 5199,
      "School": 5200,
      "fic": 5201,
      "advertising": 5202,
      "locks": 5203,
      "noted": 5204,
      "leads": 5205,
      "merch": 5206,
      "telephone": 5207,
      "follows": 5208,
      "greyhound": 5209,
      "partially": 5210,
      "cient": 5211,
      "loud": 5212,
      "diver": 5213,
      "India": 5214,
      "Scott": 5215,
      "Ireland": 5216,
      "Tra": 5217,
      "nes": 5218,
      "ento": 5219,
      "thick": 5220,
      "deal": 5221,
      "campaign": 5222,
      "damage": 5223,
      "gymnastics": 5224,
      "bing": 5225,
      "initi": 5226,
      "types": 5227,
      "metres": 5228,
      "bicyclists": 5229,
      "effe": 5230,
      "attend": 5231,
      "beginning": 5232,
      "beneath": 5233,
      "AT": 5234,
      "ports": 5235,
      "famil": 5236,
      "interview": 5237,
      "parts": 5238,
      "phy": 5239,
      "gentlemen": 5240,
      "successful": 5241,
      "rural": 5242,
      "idence": 5243,
      "amid": 5244,
      "desc": 5245,
      "eved": 5246,
      "pretending": 5247,
      "verse": 5248,
      "listen": 5249,
      "electronic": 5250,
      "aud": 5251,
      "invest": 5252,
      "defe": 5253,
      "dive": 5254,
      "director": 5255,
      "covers": 5256,
      "master": 5257,
      "crafts": 5258,
      "remained": 5259,
      "currently": 5260,
      "barrel": 5261,
      "tackle": 5262,
      "weap": 5263,
      "noon": 5264,
      "visiting": 5265,
      "courty": 5266,
      "Ara": 5267,
      "Mer": 5268,
      "uts": 5269,
      "horiz": 5270,
      "leave": 5271,
      "cycle": 5272,
      "progress": 5273,
      "Sciento": 5274,
      "health": 5275,
      "stir": 5276,
      "abandon": 5277,
      "Middle": 5278,
      "Pat": 5279,
      "ador": 5280,
      "pottery": 5281,
      "Mag": 5282,
      "impress": 5283,
      "kneels": 5284,
      "yoga": 5285,
      "courtyard": 5286,
      "lling": 5287,
      "earth": 5288,
      "cardboard": 5289,
      "knitting": 5290,
      "2nd": 5291,
      "Les": 5292,
      "reve": 5293,
      "bucking": 5294,
      "presents": 5295,
      "prepared": 5296,
      "carried": 5297,
      "vacu": 5298,
      "hours": 5299,
      "dune": 5300,
      "ropes": 5301,
      "rick": 5302,
      "aps": 5303,
      "teammate": 5304,
      "shadow": 5305,
      "Soccer": 5306,
      "David": 5307,
      "injured": 5308,
      "Ham": 5309,
      "proba": 5310,
      "serves": 5311,
      "ilen": 5312,
      "tape": 5313,
      "stuck": 5314,
      "Care": 5315,
      "conf": 5316,
      "strike": 5317,
      "primar": 5318,
      "cit": 5319,
      "sack": 5320,
      "viron": 5321,
      "icans": 5322,
      "situ": 5323,
      "balding": 5324,
      "flowered": 5325,
      "Hist": 5326,
      "walked": 5327,
      "brought": 5328,
      "pigeons": 5329,
      "Other": 5330,
      "Su": 5331,
      "Var": 5332,
      "ware": 5333,
      "includes": 5334,
      "paddle": 5335,
      "thinking": 5336,
      "commercial": 5337,
      "dles": 5338,
      "2005": 5339,
      "letter": 5340,
      "added": 5341,
      "sleeveless": 5342,
      "vacuum": 5343,
      "teens": 5344,
      "couples": 5345,
      "buted": 5346,
      "shovels": 5347,
      "portrait": 5348,
      "Sur": 5349,
      "ida": 5350,
      "seas": 5351,
      "inder": 5352,
      "planting": 5353,
      "zoo": 5354,
      "gla": 5355,
      "und": 5356,
      "nearly": 5357,
      "anything": 5358,
      "pets": 5359,
      "Bus": 5360,
      "But": 5361,
      "Met": 5362,
      "Phil": 5363,
      "Span": 5364,
      "baller": 5365,
      "igning": 5366,
      "serious": 5367,
      "Ir": 5368,
      "bon": 5369,
      "airborne": 5370,
      "concent": 5371,
      "gathers": 5372,
      "mixed": 5373,
      "figures": 5374,
      "Gold": 5375,
      "coloring": 5376,
      "Female": 5377,
      "Fol": 5378,
      "Male": 5379,
      "Pre": 5380,
      "boards": 5381,
      "exe": 5382,
      "wings": 5383,
      "months": 5384,
      "reat": 5385,
      "rear": 5386,
      "admir": 5387,
      "blind": 5388,
      "ession": 5389,
      "buckets": 5390,
      "Hawai": 5391,
      "90": 5392,
      "SA": 5393,
      "bou": 5394,
      "might": 5395,
      "wig": 5396,
      "gency": 5397,
      "writes": 5398,
      "supplies": 5399,
      "chart": 5400,
      "ices": 5401,
      "vices": 5402,
      "Crowd": 5403,
      "lighting": 5404,
      "enced": 5405,
      "places": 5406,
      "pocket": 5407,
      "burgers": 5408,
      "knees": 5409,
      "filling": 5410,
      "rot": 5411,
      "associ": 5412,
      "looked": 5413,
      "landing": 5414,
      "trunk": 5415,
      "achers": 5416,
      "splashes": 5417,
      "Super": 5418,
      "ox": 5419,
      "forced": 5420,
      "cret": 5421,
      "draw": 5422,
      "medi": 5423,
      "study": 5424,
      "rict": 5425,
      "patterned": 5426,
      "cobblestone": 5427,
      "Mark": 5428,
      "mph": 5429,
      "tact": 5430,
      "mented": 5431,
      "crane": 5432,
      "difficult": 5433,
      "Bill": 5434,
      "drun": 5435,
      "rd": 5436,
      "isle": 5437,
      "ldo": 5438,
      "raises": 5439,
      "pain": 5440,
      "yelling": 5441,
      "Mad": 5442,
      "fut": 5443,
      "osaur": 5444,
      "anas": 5445,
      "tocross": 5446,
      "termin": 5447,
      "addition": 5448,
      "skinny": 5449,
      "featured": 5450,
      "Canadian": 5451,
      "Students": 5452,
      "35": 5453,
      "nine": 5454,
      "die": 5455,
      "drill": 5456,
      "tained": 5457,
      "access": 5458,
      "regular": 5459,
      "Friends": 5460,
      "Times": 5461,
      "pir": 5462,
      "pping": 5463,
      "icop": 5464,
      "western": 5465,
      "iger": 5466,
      "discussion": 5467,
      "Battalion": 5468,
      "clay": 5469,
      "mentary": 5470,
      "derby": 5471,
      "intently": 5472,
      "allowed": 5473,
      "announced": 5474,
      "70": 5475,
      "Mil": 5476,
      "Snow": 5477,
      "Tex": 5478,
      "cheese": 5479,
      "amongst": 5480,
      "vention": 5481,
      "Town": 5482,
      "downhill": 5483,
      "zzle": 5484,
      "Ass": 5485,
      "Mac": 5486,
      "silen": 5487,
      "lets": 5488,
      "sting": 5489,
      "indic": 5490,
      "accep": 5491,
      "disc": 5492,
      "central": 5493,
      "ethnic": 5494,
      "tricycle": 5495,
      "vironment": 5496,
      "Cup": 5497,
      "chewing": 5498,
      "fireman": 5499,
      "trailer": 5500,
      "monument": 5501,
      "Dis": 5502,
      "stones": 5503,
      "estim": 5504,
      "listens": 5505,
      "Ap": 5506,
      "My": 5507,
      "Sk": 5508,
      "seats": 5509,
      "lied": 5510,
      "gues": 5511,
      "respond": 5512,
      "31": 5513,
      "Bob": 5514,
      "cabin": 5515,
      "prison": 5516,
      "applying": 5517,
      "wanted": 5518,
      "command": 5519,
      "Spanish": 5520,
      "sour": 5521,
      "suitcase": 5522,
      "potat": 5523,
      "floo": 5524,
      "nia": 5525,
      "stall": 5526,
      "edo": 5527,
      "quart": 5528,
      "Great": 5529,
      "fashion": 5530,
      "natural": 5531,
      "wling": 5532,
      "ilts": 5533,
      "cab": 5534,
      "displays": 5535,
      "damaged": 5536,
      "stare": 5537,
      "ality": 5538,
      "newborn": 5539,
      "2004": 5540,
      "vendors": 5541,
      "kayaking": 5542,
      "entertaining": 5543,
      "leot": 5544,
      "mixing": 5545,
      "originally": 5546,
      "directly": 5547,
      "80": 5548,
      "ael": 5549,
      "already": 5550,
      "redu": 5551,
      "Royal": 5552,
      "weaving": 5553,
      "via": 5554,
      "upper": 5555,
      "cameras": 5556,
      "ribbon": 5557,
      "concentr": 5558,
      "lecture": 5559,
      "helicop": 5560,
      "breakfast": 5561,
      "closely": 5562,
      "balances": 5563,
      "probably": 5564,
      "Cl": 5565,
      "rally": 5566,
      "ami": 5567,
      "apples": 5568,
      "flops": 5569,
      "Africa": 5570,
      "juice": 5571,
      "Cent": 5572,
      "lacks": 5573,
      "crobat": 5574,
      "wins": 5575,
      "products": 5576,
      "shaved": 5577,
      "ads": 5578,
      "approaches": 5579,
      "frozen": 5580,
      "House": 5581,
      "Navy": 5582,
      "god": 5583,
      "aded": 5584,
      "firemen": 5585,
      "issue": 5586,
      "reception": 5587,
      "target": 5588,
      "Rev": 5589,
      "dread": 5590,
      "terrain": 5591,
      "feather": 5592,
      "Thom": 5593,
      "headscarf": 5594,
      "ively": 5595,
      "southern": 5596,
      "eggs": 5597,
      "Game": 5598,
      "girlfriend": 5599,
      "licking": 5600,
      "bie": 5601,
      "monkey": 5602,
      "branches": 5603,
      "From": 5604,
      "Med": 5605,
      "Run": 5606,
      "irst": 5607,
      "opes": 5608,
      "tails": 5609,
      "afternoon": 5610,
      "rainy": 5611,
      "likely": 5612,
      "filming": 5613,
      "transit": 5614,
      "hurricane": 5615,
      "Kingdom": 5616,
      "cello": 5617,
      "avoid": 5618,
      "temporary": 5619,
      "500": 5620,
      "Cau": 5621,
      "Flor": 5622,
      "Mont": 5623,
      "jour": 5624,
      "tile": 5625,
      "lean": 5626,
      "comfor": 5627,
      "ability": 5628,
      "flipping": 5629,
      "contains": 5630,
      "demonstration": 5631,
      "language": 5632,
      "God": 5633,
      "cans": 5634,
      "bleachers": 5635,
      "emy": 5636,
      "directed": 5637,
      "Pu": 5638,
      "asking": 5639,
      "sunlight": 5640,
      "swimmers": 5641,
      "captured": 5642,
      "Cali": 5643,
      "link": 5644,
      "alco": 5645,
      "peak": 5646,
      "avai": 5647,
      "pherd": 5648,
      "bulldo": 5649,
      "2015": 5650,
      "clapping": 5651,
      "Band": 5652,
      "loung": 5653,
      "tes": 5654,
      "plain": 5655,
      "pood": 5656,
      "carts": 5657,
      "bricks": 5658,
      "hug": 5659,
      "casually": 5660,
      "sprinkler": 5661,
      "environment": 5662,
      "ulting": 5663,
      "mot": 5664,
      "stood": 5665,
      "silhou": 5666,
      "admiring": 5667,
      "bom": 5668,
      "paras": 5669,
      "whole": 5670,
      "signed": 5671,
      "capture": 5672,
      "docu": 5673,
      "joined": 5674,
      "strip": 5675,
      "specting": 5676,
      "general": 5677,
      "passenger": 5678,
      "deta": 5679,
      "skills": 5680,
      "motocross": 5681,
      "solo": 5682,
      "sailing": 5683,
      "letters": 5684,
      "establish": 5685,
      "George": 5686,
      "spring": 5687,
      "2003": 5688,
      "pressure": 5689,
      "Art": 5690,
      "operations": 5691,
      "gymnas": 5692,
      "Hol": 5693,
      "Ori": 5694,
      "Sing": 5695,
      "oth": 5696,
      "yer": 5697,
      "lob": 5698,
      "banjo": 5699,
      "tattooed": 5700,
      "Love": 5701,
      "approaching": 5702,
      "kisses": 5703,
      "thumbs": 5704,
      "inspecting": 5705,
      "amount": 5706,
      "buried": 5707,
      "ental": 5708,
      "yards": 5709,
      "celebrate": 5710,
      "tiny": 5711,
      "crouches": 5712,
      "rollerblading": 5713,
      "slowly": 5714,
      "gymnasium": 5715,
      "squad": 5716,
      "archite": 5717,
      "critics": 5718,
      "Qu": 5719,
      "brow": 5720,
      "surv": 5721,
      "shield": 5722,
      "quietly": 5723,
      "surgery": 5724,
      "Vic": 5725,
      "Viet": 5726,
      "size": 5727,
      "ishes": 5728,
      "lable": 5729,
      "fact": 5730,
      "grown": 5731,
      "Large": 5732,
      "Cap": 5733,
      "tons": 5734,
      "fornia": 5735,
      "dem": 5736,
      "largest": 5737,
      "praying": 5738,
      "shape": 5739,
      "pumpkin": 5740,
      "pins": 5741,
      "enough": 5742,
      "heavily": 5743,
      "Texas": 5744,
      "iny": 5745,
      "told": 5746,
      "crown": 5747,
      "assign": 5748,
      "That": 5749,
      "fake": 5750,
      "accompan": 5751,
      "firefighters": 5752,
      "giment": 5753,
      "communic": 5754,
      "extended": 5755,
      "spraying": 5756,
      "camel": 5757,
      "patch": 5758,
      "Tech": 5759,
      "hear": 5760,
      "shining": 5761,
      "riot": 5762,
      "cock": 5763,
      "stren": 5764,
      "expe": 5765,
      "bris": 5766,
      "eventually": 5767,
      "complex": 5768,
      "appearance": 5769,
      "Scientology": 5770,
      "acrobat": 5771,
      "hugs": 5772,
      "horseback": 5773,
      "pilot": 5774,
      "flips": 5775,
      "Atl": 5776,
      "Island": 5777,
      "activities": 5778,
      "wheeled": 5779,
      "gallery": 5780,
      "Irish": 5781,
      "Route": 5782,
      "ffe": 5783,
      "ially": 5784,
      "yarn": 5785,
      "inner": 5786,
      "threw": 5787,
      "armed": 5788,
      "closeup": 5789,
      "paddles": 5790,
      "Paul": 5791,
      "pred": 5792,
      "rs": 5793,
      "ream": 5794,
      "depress": 5795,
      "handed": 5796,
      "Mexico": 5797,
      "weak": 5798,
      "congre": 5799,
      "ongo": 5800,
      "split": 5801,
      "intense": 5802,
      "vio": 5803,
      "recei": 5804,
      "industrial": 5805,
      "drunk": 5806,
      "Florida": 5807,
      "Cat": 5808,
      "wading": 5809,
      "yl": 5810,
      "temple": 5811,
      "featuring": 5812,
      "Pac": 5813,
      "rup": 5814,
      "ya": 5815,
      "asc": 5816,
      "cheek": 5817,
      "masks": 5818,
      "rolled": 5819,
      "ological": 5820,
      "earlier": 5821,
      "bouquet": 5822,
      "Sm": 5823,
      "resc": 5824,
      "states": 5825,
      "icle": 5826,
      "wash": 5827,
      "abandoned": 5828,
      "California": 5829,
      "available": 5830,
      "Ab": 5831,
      "CA": 5832,
      "Lat": 5833,
      "Mi": 5834,
      "SU": 5835,
      "THe": 5836,
      "reed": 5837,
      "respons": 5838,
      "employee": 5839,
      "First": 5840,
      "nom": 5841,
      "breaking": 5842,
      "barrier": 5843,
      "entering": 5844,
      "refer": 5845,
      "Bas": 5846,
      "Bel": 5847,
      "tly": 5848,
      "hoops": 5849,
      "helped": 5850,
      "interacting": 5851,
      "burger": 5852,
      "graphy": 5853,
      "Mart": 5854,
      "zone": 5855,
      "manager": 5856,
      "cont": 5857,
      "firefighter": 5858,
      "northern": 5859,
      "promot": 5860,
      "Part": 5861,
      "iday": 5862,
      "units": 5863,
      "comed": 5864,
      "baking": 5865,
      "subsequ": 5866,
      "films": 5867,
      "specific": 5868,
      "positions": 5869,
      "Tri": 5870,
      "replaced": 5871,
      "sity": 5872,
      "Asia": 5873,
      "cotton": 5874,
      "Sha": 5875,
      "sna": 5876,
      "slacks": 5877,
      "dol": 5878,
      "weeks": 5879,
      "unus": 5880,
      "189": 5881,
      "operation": 5882,
      "Colle": 5883,
      "Cheer": 5884,
      "claimed": 5885,
      "gor": 5886,
      "ushes": 5887,
      "qua": 5888,
      "underground": 5889,
      "188": 5890,
      "cially": 5891,
      "dropped": 5892,
      "holic": 5893,
      "Green": 5894,
      "Ter": 5895,
      "Wales": 5896,
      "Ze": 5897,
      "dressing": 5898,
      "bathtub": 5899,
      "ville": 5900,
      "Base": 5901,
      "hum": 5902,
      "ception": 5903,
      "washer": 5904,
      "deer": 5905,
      "prevent": 5906,
      "cups": 5907,
      "panic": 5908,
      "IN": 5909,
      "mul": 5910,
      "igan": 5911,
      "semi": 5912,
      "dough": 5913,
      "respe": 5914,
      "ari": 5915,
      "enting": 5916,
      "keys": 5917,
      "baker": 5918,
      "create": 5919,
      "tires": 5920,
      "converse": 5921,
      "priv": 5922,
      "Christian": 5923,
      "example": 5924,
      "observes": 5925,
      "spoon": 5926,
      "printed": 5927,
      "tossing": 5928,
      "tiled": 5929,
      "icy": 5930,
      "horn": 5931,
      "cute": 5932,
      "scarves": 5933,
      "pads": 5934,
      "Hor": 5935,
      "descent": 5936,
      "squir": 5937,
      "Canada": 5938,
      "Bay": 5939,
      "upset": 5940,
      "strugg": 5941,
      "regard": 5942,
      "silly": 5943,
      "commit": 5944,
      "participate": 5945,
      "supported": 5946,
      "exhibit": 5947,
      "hest": 5948,
      "itch": 5949,
      "somewhere": 5950,
      "International": 5951,
      "45": 5952,
      "Best": 5953,
      "outing": 5954,
      "examines": 5955,
      "splash": 5956,
      "Lu": 5957,
      "Light": 5958,
      "rum": 5959,
      "stom": 5960,
      "tomat": 5961,
      "concl": 5962,
      "chel": 5963,
      "anges": 5964,
      "collection": 5965,
      "quarterback": 5966,
      "Carey": 5967,
      "dreadlocks": 5968,
      "missing": 5969,
      "cargo": 5970,
      "certain": 5971,
      "uniformed": 5972,
      "elements": 5973,
      "machines": 5974,
      "containing": 5975,
      "Britain": 5976,
      "separate": 5977,
      "fu": 5978,
      "aters": 5979,
      "adm": 5980,
      "decl": 5981,
      "presenting": 5982,
      "Blue": 5983,
      "fencing": 5984,
      "Kore": 5985,
      "NA": 5986,
      "Sam": 5987,
      "nun": 5988,
      "sse": 5989,
      "pale": 5990,
      "ustr": 5991,
      "deliver": 5992,
      "pedestrian": 5993,
      "Russ": 5994,
      "believed": 5995,
      "dimly": 5996,
      "Following": 5997,
      "Hen": 5998,
      "Hel": 5999,
      "Tro": 6000,
      "sters": 6001,
      "poet": 6002,
      "driveway": 6003,
      "remains": 6004,
      "Jewish": 6005,
      "constructed": 6006,
      "Halloween": 6007,
      "families": 6008,
      "75": 6009,
      "Tom": 6010,
      "ulls": 6011,
      "opens": 6012,
      "ctively": 6013,
      "provided": 6014,
      "execut": 6015,
      "Pacific": 6016,
      "Da": 6017,
      "Hur": 6018,
      "Villa": 6019,
      "recl": 6020,
      "bored": 6021,
      "ggy": 6022,
      "observe": 6023,
      "stun": 6024,
      "ordered": 6025,
      "vey": 6026,
      "torch": 6027,
      "wrestle": 6028,
      "Michael": 6029,
      "Thomas": 6030,
      "Im": 6031,
      "Mus": 6032,
      "Mult": 6033,
      "watermel": 6034,
      "scared": 6035,
      "carefully": 6036,
      "chalkboard": 6037,
      "Mexican": 6038,
      "symbo": 6039,
      "wers": 6040,
      "christ": 6041,
      "outstretched": 6042,
      "personal": 6043,
      "brand": 6044,
      "safe": 6045,
      "Cla": 6046,
      "RE": 6047,
      "Rol": 6048,
      "Sw": 6049,
      "ita": 6050,
      "cakes": 6051,
      "fields": 6052,
      "unique": 6053,
      "trucks": 6054,
      "consid": 6055,
      "consisting": 6056,
      "expression": 6057,
      "nurse": 6058,
      "MA": 6059,
      "lion": 6060,
      "conom": 6061,
      "department": 6062,
      "except": 6063,
      "celebration": 6064,
      "fellow": 6065,
      "Family": 6066,
      "helicopter": 6067,
      "Caucasian": 6068,
      "Wel": 6069,
      "chat": 6070,
      "plans": 6071,
      "microphones": 6072,
      "calf": 6073,
      "pire": 6074,
      "chief": 6075,
      "istic": 6076,
      "ducks": 6077,
      "guards": 6078,
      "rod": 6079,
      "dives": 6080,
      "perfect": 6081,
      "demonstrating": 6082,
      "moped": 6083,
      "Brigade": 6084,
      "retrie": 6085,
      "rice": 6086,
      "hero": 6087,
      "stance": 6088,
      "laid": 6089,
      "teammates": 6090,
      "purchase": 6091,
      "march": 6092,
      "rolls": 6093,
      "numerous": 6094,
      "medium": 6095,
      "touchdown": 6096,
      "Baby": 6097,
      "grinding": 6098,
      "dangerous": 6099,
      "Atlantic": 6100,
      "38": 6101,
      "Que": 6102,
      "ancient": 6103,
      "racers": 6104,
      "paintings": 6105,
      "Union": 6106,
      "Battle": 6107,
      "senior": 6108,
      "lun": 6109,
      "sed": 6110,
      "union": 6111,
      "belie": 6112,
      "Championship": 6113,
      "underwear": 6114,
      "tooth": 6115,
      "Robert": 6116,
      "international": 6117,
      "Comman": 6118,
      "pushed": 6119,
      "orders": 6120,
      "tut": 6121,
      "wand": 6122,
      "inv": 6123,
      "reign": 6124,
      "loves": 6125,
      "count": 6126,
      "waterski": 6127,
      "generally": 6128,
      "Jen": 6129,
      "Mountain": 6130,
      "blings": 6131,
      "Chic": 6132,
      "burn": 6133,
      "approach": 6134,
      "goat": 6135,
      "clut": 6136,
      "liter": 6137,
      "sales": 6138,
      "Teen": 6139,
      "Mu": 6140,
      "bite": 6141,
      "hut": 6142,
      "alo": 6143,
      "threat": 6144,
      "paid": 6145,
      "hillside": 6146,
      "pours": 6147,
      "previously": 6148,
      "Ele": 6149,
      "yon": 6150,
      "yet": 6151,
      "challen": 6152,
      "needs": 6153,
      "appointed": 6154,
      "scenery": 6155,
      "Most": 6156,
      "Over": 6157,
      "atic": 6158,
      "ulars": 6159,
      "belly": 6160,
      "telling": 6161,
      "Tor": 6162,
      "ology": 6163,
      "twent": 6164,
      "always": 6165,
      "achie": 6166,
      "storefront": 6167,
      "turtle": 6168,
      "hills": 6169,
      "newspapers": 6170,
      "hunting": 6171,
      "speaker": 6172,
      "interested": 6173,
      "citiz": 6174,
      "1st": 6175,
      "bour": 6176,
      "ients": 6177,
      "oil": 6178,
      "oven": 6179,
      "wick": 6180,
      "chinese": 6181,
      "logo": 6182,
      "scrat": 6183,
      "extra": 6184,
      "theme": 6185,
      "collared": 6186,
      "cases": 6187,
      "future": 6188,
      "Ben": 6189,
      "Pal": 6190,
      "overhead": 6191,
      "gestures": 6192,
      "farmers": 6193,
      "binoc": 6194,
      "relationship": 6195,
      "Res": 6196,
      "thedr": 6197,
      "comb": 6198,
      "scra": 6199,
      "settle": 6200,
      "steam": 6201,
      "sledding": 6202,
      "Chicago": 6203,
      "mind": 6204,
      "bered": 6205,
      "displayed": 6206,
      "culture": 6207,
      "ornate": 6208,
      "particularly": 6209,
      "investig": 6210,
      "President": 6211,
      "signing": 6212,
      "uel": 6213,
      "personnel": 6214,
      "clothed": 6215,
      "butcher": 6216,
      "occas": 6217,
      "Native": 6218,
      "iter": 6219,
      "laps": 6220,
      "cows": 6221,
      "pots": 6222,
      "broke": 6223,
      "bron": 6224,
      "cannot": 6225,
      "bagpipes": 6226,
      "packed": 6227,
      "nets": 6228,
      "picks": 6229,
      "touches": 6230,
      "reflection": 6231,
      "crouching": 6232,
      "highest": 6233,
      "inspe": 6234,
      "ounge": 6235,
      "2014": 6236,
      "sembly": 6237,
      "pattern": 6238,
      "Italian": 6239,
      "Mem": 6240,
      "bought": 6241,
      "mouse": 6242,
      "itive": 6243,
      "president": 6244,
      "arrived": 6245,
      "calling": 6246,
      "Scottish": 6247,
      "Bal": 6248,
      "HE": 6249,
      "Hero": 6250,
      "aer": 6251,
      "roman": 6252,
      "usk": 6253,
      "commen": 6254,
      "facial": 6255,
      "finishing": 6256,
      "wires": 6257,
      "blocking": 6258,
      "digital": 6259,
      "records": 6260,
      "USA": 6261,
      "sharp": 6262,
      "Cheerleaders": 6263,
      "Multiple": 6264,
      "Emp": 6265,
      "Fil": 6266,
      "harm": 6267,
      "mist": 6268,
      "unit": 6269,
      "shado": 6270,
      "wheeler": 6271,
      "changes": 6272,
      "employees": 6273,
      "latter": 6274,
      "focused": 6275,
      "Shi": 6276,
      "arrang": 6277,
      "agle": 6278,
      "overweight": 6279,
      "shaw": 6280,
      "rapids": 6281,
      "dum": 6282,
      "gir": 6283,
      "mun": 6284,
      "nude": 6285,
      "unte": 6286,
      "idea": 6287,
      "fier": 6288,
      "agement": 6289,
      "physical": 6290,
      "estimated": 6291,
      "rise": 6292,
      "aland": 6293,
      "peers": 6294,
      "trade": 6295,
      "evidence": 6296,
      "funeral": 6297,
      "interesting": 6298,
      "holiday": 6299,
      "ximately": 6300,
      "thedral": 6301,
      "Back": 6302,
      "fill": 6303,
      "sche": 6304,
      "potent": 6305,
      "visit": 6306,
      "trashcan": 6307,
      "Isra": 6308,
      "4th": 6309,
      "Mary": 6310,
      "Oli": 6311,
      "average": 6312,
      "stant": 6313,
      "logs": 6314,
      "bicycl": 6315,
      "2001": 6316,
      "nails": 6317,
      "border": 6318,
      "rabbit": 6319,
      "quarters": 6320,
      "Egy": 6321,
      "san": 6322,
      "rec": 6323,
      "repe": 6324,
      "atives": 6325,
      "immedi": 6326,
      "bush": 6327,
      "Under": 6328,
      "frowning": 6329,
      "changing": 6330,
      "butterfly": 6331,
      "fifth": 6332,
      "defeated": 6333,
      "gie": 6334,
      "oly": 6335,
      "erted": 6336,
      "scenic": 6337,
      "magic": 6338,
      "Despite": 6339,
      "recently": 6340,
      "adv": 6341,
      "despite": 6342,
      "stein": 6343,
      "praised": 6344,
      "bowls": 6345,
      "loaded": 6346,
      "binoculars": 6347,
      "DJ": 6348,
      "Hall": 6349,
      "Sou": 6350,
      "hoo": 6351,
      "usion": 6352,
      "19th": 6353,
      "shell": 6354,
      "laptops": 6355,
      "screaming": 6356,
      "protesters": 6357,
      "ordering": 6358,
      "defense": 6359,
      "III": 6360,
      "transfer": 6361,
      "rollerskating": 6362,
      "leotard": 6363,
      "Eld": 6364,
      "Oper": 6365,
      "soup": 6366,
      "tiger": 6367,
      "ingly": 6368,
      "pod": 6369,
      "poker": 6370,
      "forming": 6371,
      "shoreline": 6372,
      "hungry": 6373,
      "techni": 6374,
      "pinata": 6375,
      "parachute": 6376,
      "Stor": 6377,
      "tying": 6378,
      "ordin": 6379,
      "seag": 6380,
      "oters": 6381,
      "tips": 6382,
      "actors": 6383,
      "kicked": 6384,
      "examine": 6385,
      "beanie": 6386,
      "bay": 6387,
      "valley": 6388,
      "aly": 6389,
      "combat": 6390,
      "grabbing": 6391,
      "uded": 6392,
      "stripe": 6393,
      "pleas": 6394,
      "priest": 6395,
      "destroyed": 6396,
      "Em": 6397,
      "rifle": 6398,
      "mounted": 6399,
      "problems": 6400,
      "recogn": 6401,
      "Zealand": 6402,
      "Hi": 6403,
      "nail": 6404,
      "repairs": 6405,
      "dumpster": 6406,
      "receiving": 6407,
      "Eight": 6408,
      "Jor": 6409,
      "geon": 6410,
      "lifts": 6411,
      "Carol": 6412,
      "script": 6413,
      "exhib": 6414,
      "Big": 6415,
      "Couple": 6416,
      "haps": 6417,
      "bears": 6418,
      "nest": 6419,
      "territ": 6420,
      "debris": 6421,
      "scale": 6422,
      "186": 6423,
      "increased": 6424,
      "Square": 6425,
      "Tr": 6426,
      "Washing": 6427,
      "ula": 6428,
      "stal": 6429,
      "kee": 6430,
      "lives": 6431,
      "focus": 6432,
      "olution": 6433,
      "cowboys": 6434,
      "attacked": 6435,
      "fluffy": 6436,
      "siblings": 6437,
      "36": 6438,
      "Gover": 6439,
      "Mot": 6440,
      "dred": 6441,
      "entered": 6442,
      "umpire": 6443,
      "crosse": 6444,
      "scrubs": 6445,
      "fishes": 6446,
      "Germany": 6447,
      "scaffold": 6448,
      "Gal": 6449,
      "Gra": 6450,
      "Pho": 6451,
      "aled": 6452,
      "reviews": 6453,
      "losing": 6454,
      "buff": 6455,
      "contri": 6456,
      "fireplace": 6457,
      "185": 6458,
      "glove": 6459,
      "relative": 6460,
      "Early": 6461,
      "christmas": 6462,
      "Washington": 6463,
      "Their": 6464,
      "shades": 6465,
      "habit": 6466,
      "anger": 6467,
      "indian": 6468,
      "experiment": 6469,
      "erer": 6470,
      "BA": 6471,
      "UK": 6472,
      "Vir": 6473,
      "inet": 6474,
      "iser": 6475,
      "starts": 6476,
      "Another": 6477,
      "angle": 6478,
      "Asians": 6479,
      "driven": 6480,
      "stories": 6481,
      "clowns": 6482,
      "messy": 6483,
      "chopping": 6484,
      "scientist": 6485,
      "auditor": 6486,
      "Lesnar": 6487,
      "Creek": 6488,
      "Later": 6489,
      "lounge": 6490,
      "rect": 6491,
      "ener": 6492,
      "toile": 6493,
      "colon": 6494,
      "apparen": 6495,
      "statues": 6496,
      "rapid": 6497,
      "wrestler": 6498,
      "wrestlers": 6499,
      "sniff": 6500,
      "migr": 6501,
      "relaxes": 6502,
      "occupied": 6503,
      "Bi": 6504,
      "Rad": 6505,
      "aisle": 6506,
      "rein": 6507,
      "wore": 6508,
      "unknown": 6509,
      "adop": 6510,
      "amboo": 6511,
      "istr": 6512,
      "mea": 6513,
      "shoots": 6514,
      "required": 6515,
      "Federer": 6516,
      "tuxedo": 6517,
      "33": 6518,
      "Act": 6519,
      "Ka": 6520,
      "bil": 6521,
      "gle": 6522,
      "wares": 6523,
      "cries": 6524,
      "blankets": 6525,
      "Hill": 6526,
      "Jim": 6527,
      "oranges": 6528,
      "basement": 6529,
      "minutes": 6530,
      "Guitar": 6531,
      "Egypt": 6532,
      "auditorium": 6533,
      "Lab": 6534,
      "think": 6535,
      "raise": 6536,
      "overall": 6537,
      "izes": 6538,
      "surfs": 6539,
      "visor": 6540,
      "hotdog": 6541,
      "furry": 6542,
      "checkers": 6543,
      "determin": 6544,
      "Fort": 6545,
      "econom": 6546,
      "ands": 6547,
      "alle": 6548,
      "images": 6549,
      "handling": 6550,
      "babies": 6551,
      "metro": 6552,
      "Victor": 6553,
      "unusual": 6554,
      "alter": 6555,
      "escape": 6556,
      "bey": 6557,
      "plu": 6558,
      "marri": 6559,
      "skiers": 6560,
      "product": 6561,
      "McC": 6562,
      "McDon": 6563,
      "rescue": 6564,
      "wound": 6565,
      "oping": 6566,
      "snowman": 6567,
      "portion": 6568,
      "attacks": 6569,
      "archae": 6570,
      "harvest": 6571,
      "approximately": 6572,
      "suspenders": 6573,
      "attractive": 6574,
      "private": 6575,
      "Jordan": 6576,
      "Sta": 6577,
      "elabor": 6578,
      "raid": 6579,
      "illum": 6580,
      "colum": 6581,
      "capital": 6582,
      "actually": 6583,
      "filmed": 6584,
      "candle": 6585,
      "cookies": 6586,
      "supermarket": 6587,
      "dolls": 6588,
      "Richard": 6589,
      "lounging": 6590,
      "gap": 6591,
      "lli": 6592,
      "spark": 6593,
      "onse": 6594,
      "bodies": 6595,
      "painter": 6596,
      "canvas": 6597,
      "chefs": 6598,
      "organized": 6599,
      "arcade": 6600,
      "Water": 6601,
      "removed": 6602,
      "lemon": 6603,
      "assemble": 6604,
      "aster": 6605,
      "climbers": 6606,
      "flan": 6607,
      "2002": 6608,
      "waiter": 6609,
      "remaining": 6610,
      "SUV": 6611,
      "Stu": 6612,
      "pound": 6613,
      "tip": 6614,
      "research": 6615,
      "verages": 6616,
      "ultan": 6617,
      "pact": 6618,
      "hift": 6619,
      "charity": 6620,
      "wheelie": 6621,
      "cultural": 6622,
      "Ke": 6623,
      "Ko": 6624,
      "ila": 6625,
      "vine": 6626,
      "heel": 6627,
      "spi": 6628,
      "headdress": 6629,
      "cameraman": 6630,
      "fireworks": 6631,
      "issance": 6632,
      "folk": 6633,
      "limited": 6634,
      "ballerina": 6635,
      "Baseball": 6636,
      "FA": 6637,
      "Kid": 6638,
      "cure": 6639,
      "kilt": 6640,
      "iner": 6641,
      "toms": 6642,
      "idents": 6643,
      "plic": 6644,
      "matic": 6645,
      "media": 6646,
      "makeshift": 6647,
      "searching": 6648,
      "Clo": 6649,
      "Der": 6650,
      "Sch": 6651,
      "nie": 6652,
      "educ": 6653,
      "term": 6654,
      "soap": 6655,
      "ieval": 6656,
      "scent": 6657,
      "spent": 6658,
      "Infantry": 6659,
      "Americans": 6660,
      "protection": 6661,
      "studies": 6662,
      "businessman": 6663,
      "commiss": 6664,
      "response": 6665,
      "adjusting": 6666,
      "sip": 6667,
      "thr": 6668,
      "fork": 6669,
      "mock": 6670,
      "grab": 6671,
      "stock": 6672,
      "election": 6673,
      "owners": 6674,
      "decision": 6675,
      "graphic": 6676,
      "Eastern": 6677,
      "Latin": 6678,
      "Cha": 6679,
      "Just": 6680,
      "dut": 6681,
      "kel": 6682,
      "skull": 6683,
      "failed": 6684,
      "longer": 6685,
      "save": 6686,
      "turban": 6687,
      "cellphones": 6688,
      "write": 6689,
      "waitress": 6690,
      "designs": 6691,
      "historical": 6692,
      "caucasian": 6693,
      "Adults": 6694,
      "task": 6695,
      "initially": 6696,
      "Central": 6697,
      "lon": 6698,
      "espe": 6699,
      "divid": 6700,
      "clearing": 6701,
      "cuit": 6702,
      "vocal": 6703,
      "promin": 6704,
      "missed": 6705,
      "everyone": 6706,
      "bulldozer": 6707,
      "meadow": 6708,
      "3rd": 6709,
      "Award": 6710,
      "ena": 6711,
      "ultim": 6712,
      "perhaps": 6713,
      "fac": 6714,
      "matches": 6715,
      "vised": 6716,
      "2000": 6717,
      "Regiment": 6718,
      "stretches": 6719,
      "briefcase": 6720,
      "Miami": 6721,
      "37": 6722,
      "Ty": 6723,
      "bamboo": 6724,
      "sure": 6725,
      "request": 6726,
      "onica": 6727,
      "stilts": 6728,
      "ume": 6729,
      "camels": 6730,
      "nighttime": 6731,
      "toddlers": 6732,
      "hotdogs": 6733,
      "casting": 6734,
      "Ver": 6735,
      "apo": 6736,
      "hide": 6737,
      "jun": 6738,
      "overs": 6739,
      "arrange": 6740,
      "rose": 6741,
      "web": 6742,
      "dest": 6743,
      "pictured": 6744,
      "planning": 6745,
      "conductor": 6746,
      "embracing": 6747,
      "depression": 6748,
      "Muslim": 6749,
      "Peter": 6750,
      "Sen": 6751,
      "brace": 6752,
      "bends": 6753,
      "kill": 6754,
      "shut": 6755,
      "agree": 6756,
      "marble": 6757,
      "cras": 6758,
      "wheelbar": 6759,
      "arrive": 6760,
      "rollerskates": 6761,
      "notebook": 6762,
      "Korean": 6763,
      "stunts": 6764,
      "especially": 6765,
      "sight": 6766,
      "shine": 6767,
      "contem": 6768,
      "snowshoes": 6769,
      "spr": 6770,
      "stores": 6771,
      "tuba": 6772,
      "annual": 6773,
      "higher": 6774,
      "surprised": 6775,
      "IS": 6776,
      "plot": 6777,
      "independ": 6778,
      "bia": 6779,
      "according": 6780,
      "monitor": 6781,
      "listed": 6782,
      "lanter": 6783,
      "temper": 6784,
      "jazz": 6785,
      "cycling": 6786,
      "Cal": 6787,
      "nation": 6788,
      "convention": 6789,
      "feel": 6790,
      "persons": 6791,
      "agreed": 6792,
      "goals": 6793,
      "faced": 6794,
      "phi": 6795,
      "discovered": 6796,
      "actor": 6797,
      "rails": 6798,
      "porting": 6799,
      "digs": 6800,
      "alleyway": 6801,
      "poodle": 6802,
      "49": 6803,
      "Bic": 6804,
      "Pet": 6805,
      "Ve": 6806,
      "height": 6807,
      "lacrosse": 6808,
      "liz": 6809,
      "quo": 6810,
      "gain": 6811,
      "forehead": 6812,
      "movement": 6813,
      "paying": 6814,
      "Henry": 6815,
      "Lou": 6816,
      "Mal": 6817,
      "ield": 6818,
      "mn": 6819,
      "ply": 6820,
      "theat": 6821,
      "beverages": 6822,
      "rich": 6823,
      "conver": 6824,
      "midst": 6825,
      "pathway": 6826,
      "golfer": 6827,
      "voice": 6828,
      "hundred": 6829,
      "fleet": 6830,
      "sailboat": 6831,
      "Squad": 6832,
      "ifa": 6833,
      "ouri": 6834,
      "Chris": 6835,
      "spots": 6836,
      "stained": 6837,
      "extremely": 6838,
      "merchand": 6839,
      "College": 6840,
      "marriage": 6841,
      "If": 6842,
      "itation": 6843,
      "washes": 6844,
      "scoring": 6845,
      "brass": 6846,
      "lighted": 6847,
      "crash": 6848,
      "autumn": 6849,
      "majority": 6850,
      "punching": 6851,
      "coura": 6852,
      "Not": 6853,
      "rus": 6854,
      "zom": 6855,
      "roo": 6856,
      "provide": 6857,
      "roadway": 6858,
      "boxer": 6859,
      "Western": 6860,
      "axe": 6861,
      "Ped": 6862,
      "cry": 6863,
      "ono": 6864,
      "doctors": 6865,
      "classic": 6866,
      "Boston": 6867,
      "additional": 6868,
      "prior": 6869,
      "knows": 6870,
      "Missouri": 6871,
      "introduced": 6872,
      "your": 6873,
      "asked": 6874,
      "nequ": 6875,
      "minute": 6876,
      "seeing": 6877,
      "Fur": 6878,
      "mad": 6879,
      "ota": 6880,
      "sque": 6881,
      "mower": 6882,
      "sometimes": 6883,
      "brushes": 6884,
      "pigtails": 6885,
      "needed": 6886,
      "establishment": 6887,
      "stomach": 6888,
      "Vol": 6889,
      "mine": 6890,
      "attered": 6891,
      "spending": 6892,
      "intended": 6893,
      "highly": 6894,
      "minor": 6895,
      "decorations": 6896,
      "changed": 6897,
      "rollerblades": 6898,
      "Associ": 6899,
      "merchandise": 6900,
      "bio": 6901,
      "cave": 6902,
      "smooth": 6903,
      "trophy": 6904,
      "crates": 6905,
      "circular": 6906,
      "operates": 6907,
      "parent": 6908,
      "Musicians": 6909,
      "bouncing": 6910,
      "suggested": 6911,
      "snake": 6912,
      "39": 6913,
      "Ban": 6914,
      "sch": 6915,
      "iced": 6916,
      "playfully": 6917,
      "ups": 6918,
      "aprons": 6919,
      "clock": 6920,
      "sunbathing": 6921,
      "acy": 6922,
      "barn": 6923,
      "instructor": 6924,
      "curtain": 6925,
      "grow": 6926,
      "cruise": 6927,
      "campfire": 6928,
      "Card": 6929,
      "Off": 6930,
      "Tre": 6931,
      "gam": 6932,
      "inj": 6933,
      "aries": 6934,
      "kings": 6935,
      "pel": 6936,
      "kept": 6937,
      "trouble": 6938,
      "draws": 6939,
      "experience": 6940,
      "shelter": 6941,
      "48": 6942,
      "dusk": 6943,
      "debut": 6944,
      "prepar": 6945,
      "mean": 6946,
      "cloud": 6947,
      "liament": 6948,
      "47": 6949,
      "Nero": 6950,
      "icing": 6951,
      "ceed": 6952,
      "mountainside": 6953,
      "observed": 6954,
      "frequ": 6955,
      "lifted": 6956,
      "Out": 6957,
      "brid": 6958,
      "tread": 6959,
      "secret": 6960,
      "divers": 6961,
      "jogs": 6962,
      "creation": 6963,
      "fixes": 6964,
      "Team": 6965,
      "fashioned": 6966,
      "embrace": 6967,
      "navig": 6968,
      "ached": 6969,
      "vot": 6970,
      "isher": 6971,
      "mannequ": 6972,
      "boyfriend": 6973,
      "crops": 6974,
      "defin": 6975,
      "join": 6976,
      "dinosaur": 6977,
      "Los": 6978,
      "collecting": 6979,
      "intenance": 6980,
      "History": 6981,
      "Dom": 6982,
      "han": 6983,
      "jan": 6984,
      "gos": 6985,
      "cler": 6986,
      "exca": 6987,
      "inton": 6988,
      "187": 6989,
      "crawling": 6990,
      "puppet": 6991,
      "gazing": 6992,
      "techno": 6993,
      "Tourists": 6994,
      "Charles": 6995,
      "situation": 6996,
      "Elderly": 6997,
      "FI": 6998,
      "Museum": 6999,
      "bart": 7000,
      "menu": 7001,
      "usually": 7002,
      "tried": 7003,
      "sau": 7004,
      "volunte": 7005,
      "happening": 7006,
      "crib": 7007,
      "laboratory": 7008,
      "amidst": 7009,
      "Philip": 7010,
      "shadows": 7011,
      "Awards": 7012,
      "Its": 7013,
      "legged": 7014,
      "becoming": 7015,
      "romat": 7016,
      "illery": 7017,
      "whether": 7018,
      "canal": 7019,
      "trains": 7020,
      "partner": 7021,
      "casino": 7022,
      "subject": 7023,
      "lence": 7024,
      "scooters": 7025,
      "solid": 7026,
      "crouched": 7027,
      "ticket": 7028,
      "elevator": 7029,
      "congreg": 7030,
      "Cra": 7031,
      "actions": 7032,
      "rare": 7033,
      "worn": 7034,
      "division": 7035,
      "clar": 7036,
      "ishop": 7037,
      "northeast": 7038,
      "kilo": 7039,
      "launched": 7040,
      "involving": 7041,
      "terminal": 7042,
      "dor": 7043,
      "rics": 7044,
      "oms": 7045,
      "drilling": 7046,
      "Sea": 7047,
      "Wood": 7048,
      "ify": 7049,
      "policemen": 7050,
      "positive": 7051,
      "electrical": 7052,
      "maintain": 7053,
      "Ath": 7054,
      "Center": 7055,
      "ites": 7056,
      "ories": 7057,
      "chor": 7058,
      "sidelines": 7059,
      "caf": 7060,
      "sleeves": 7061,
      "amples": 7062,
      "spotted": 7063,
      "assigned": 7064,
      "Since": 7065,
      "Tru": 7066,
      "send": 7067,
      "wan": 7068,
      "returning": 7069,
      "beret": 7070,
      "mohawk": 7071,
      "greet": 7072,
      "finally": 7073,
      "protect": 7074,
      "shakes": 7075,
      "growing": 7076,
      "ification": 7077,
      "hurt": 7078,
      "expensive": 7079,
      "Michigan": 7080,
      "bringing": 7081,
      "Long": 7082,
      "Ocean": 7083,
      "Ta": 7084,
      "cred": 7085,
      "math": 7086,
      "shark": 7087,
      "assa": 7088,
      "steak": 7089,
      "barbe": 7090,
      "identical": 7091,
      "Protest": 7092,
      "teaches": 7093,
      "contract": 7094,
      "Lake": 7095,
      "Earth": 7096,
      "Penn": 7097,
      "AA": 7098,
      "Year": 7099,
      "dent": 7100,
      "ko": 7101,
      "trench": 7102,
      "sket": 7103,
      "sole": 7104,
      "tripod": 7105,
      "rison": 7106,
      "conditions": 7107,
      "lime": 7108,
      "twirl": 7109,
      "columns": 7110,
      "Home": 7111,
      "Tu": 7112,
      "del": 7113,
      "maneu": 7114,
      "labe": 7115,
      "coal": 7116,
      "keeping": 7117,
      "diam": 7118,
      "sweeps": 7119,
      "homemade": 7120,
      "stairway": 7121,
      "stepping": 7122,
      "question": 7123,
      "arguing": 7124,
      "homes": 7125,
      "Pedestri": 7126,
      "Cour": 7127,
      "arrest": 7128,
      "hoe": 7129,
      "feed": 7130,
      "exist": 7131,
      "abs": 7132,
      "floats": 7133,
      "effect": 7134,
      "magazines": 7135,
      "daily": 7136,
      "emergency": 7137,
      "Angeles": 7138,
      "twenty": 7139,
      "Wheel": 7140,
      "punch": 7141,
      "reason": 7142,
      "advent": 7143,
      "illy": 7144,
      "swimsuits": 7145,
      "numbered": 7146,
      "diner": 7147,
      "medieval": 7148,
      "legal": 7149,
      "naps": 7150,
      "Hockey": 7151,
      "continue": 7152,
      "32": 7153,
      "ado": 7154,
      "gay": 7155,
      "tto": 7156,
      "unhappy": 7157,
      "deman": 7158,
      "defeat": 7159,
      "anted": 7160,
      "cathedral": 7161,
      "Station": 7162,
      "directing": 7163,
      "defensive": 7164,
      "hydr": 7165,
      "mounta": 7166,
      "Skate": 7167,
      "ona": 7168,
      "robot": 7169,
      "shiny": 7170,
      "university": 7171,
      "adap": 7172,
      "admin": 7173,
      "beads": 7174,
      "amed": 7175,
      "maintenance": 7176,
      "corpor": 7177,
      "vier": 7178,
      "Only": 7179,
      "profession": 7180,
      "Jane": 7181,
      "Paris": 7182,
      "dete": 7183,
      "memorial": 7184,
      "effects": 7185,
      "Virgin": 7186,
      "Sal": 7187,
      "Sold": 7188,
      "ingred": 7189,
      "ada": 7190,
      "deserted": 7191,
      "mouths": 7192,
      "stump": 7193,
      "mainly": 7194,
      "gazes": 7195,
      "Oldham": 7196,
      "dragon": 7197,
      "Firefighters": 7198,
      "thusi": 7199,
      "Fer": 7200,
      "Tem": 7201,
      "gig": 7202,
      "offering": 7203,
      "eachother": 7204,
      "desks": 7205,
      "flowing": 7206,
      "Force": 7207,
      "connected": 7208,
      "olympic": 7209,
      "composed": 7210,
      "daytime": 7211,
      "themed": 7212,
      "banana": 7213,
      "trol": 7214,
      "Spect": 7215,
      "Frank": 7216,
      "strength": 7217,
      "elaborate": 7218,
      "wheelbarrow": 7219,
      "bartender": 7220,
      "bould": 7221,
      "guide": 7222,
      "agers": 7223,
      "spired": 7224,
      "vessel": 7225,
      "meaning": 7226,
      "captain": 7227,
      "landed": 7228,
      "Rose": 7229,
      "mug": 7230,
      "chainsaw": 7231,
      "tackled": 7232,
      "Hurricane": 7233,
      "Ob": 7234,
      "Pit": 7235,
      "enthusi": 7236,
      "jumper": 7237,
      "bottoms": 7238,
      "44": 7239,
      "Str": 7240,
      "brides": 7241,
      "rate": 7242,
      "sam": 7243,
      "1950": 7244,
      "cattle": 7245,
      "skydiving": 7246,
      "ranked": 7247,
      "Jin": 7248,
      "Ven": 7249,
      "cis": 7250,
      "hops": 7251,
      "los": 7252,
      "shire": 7253,
      "angel": 7254,
      "meter": 7255,
      "tens": 7256,
      "marsh": 7257,
      "boxers": 7258,
      "Arch": 7259,
      "massive": 7260,
      "hoping": 7261,
      "retriever": 7262,
      "stitute": 7263,
      "whistle": 7264,
      "multi": 7265,
      "400": 7266,
      "Dr": 7267,
      "ency": 7268,
      "chin": 7269,
      "pee": 7270,
      "snowball": 7271,
      "alongside": 7272,
      "occurred": 7273,
      "squirrel": 7274,
      "advance": 7275,
      "Pedestrians": 7276,
      "mond": 7277,
      "chron": 7278,
      "unable": 7279,
      "atest": 7280,
      "joke": 7281,
      "aker": 7282,
      "merry": 7283,
      "presence": 7284,
      "1999": 7285,
      "tradition": 7286,
      "bikinis": 7287,
      "stretch": 7288,
      "snacks": 7289,
      "primary": 7290,
      "subsequently": 7291,
      "Association": 7292,
      "treadmill": 7293,
      "stating": 7294,
      "cable": 7295,
      "aven": 7296,
      "miniature": 7297,
      "warehouse": 7298,
      "potatoes": 7299,
      "demol": 7300,
      "accompanied": 7301,
      "referred": 7302,
      "iel": 7303,
      "shag": 7304,
      "gras": 7305,
      "perched": 7306,
      "rocking": 7307,
      "tanks": 7308,
      "flash": 7309,
      "bananas": 7310,
      "schools": 7311,
      "Guys": 7312,
      "historic": 7313,
      "grandmother": 7314,
      "nicely": 7315,
      "dusty": 7316,
      "Olivier": 7317,
      "wre": 7318,
      "roses": 7319,
      "lyrics": 7320,
      "peror": 7321,
      "campus": 7322,
      "curve": 7323,
      "function": 7324,
      "bbles": 7325,
      "completing": 7326,
      "1995": 7327,
      "learn": 7328,
      "install": 7329,
      "Ale": 7330,
      "Ce": 7331,
      "Pic": 7332,
      "dess": 7333,
      "isn": 7334,
      "soil": 7335,
      "acts": 7336,
      "Head": 7337,
      "finan": 7338,
      "burg": 7339,
      "Enter": 7340,
      "horizon": 7341,
      "parasa": 7342,
      "Motor": 7343,
      "AI": 7344,
      "Kit": 7345,
      "gion": 7346,
      "imen": 7347,
      "kins": 7348,
      "sons": 7349,
      "wealth": 7350,
      "worth": 7351,
      "Through": 7352,
      "shawl": 7353,
      "structures": 7354,
      "Shirt": 7355,
      "Series": 7356,
      "mechanical": 7357,
      "alcohol": 7358,
      "giraffe": 7359,
      "quoise": 7360,
      "ingredients": 7361,
      "Law": 7362,
      "kis": 7363,
      "lived": 7364,
      "ruins": 7365,
      "Anim": 7366,
      "distri": 7367,
      "rising": 7368,
      "wrist": 7369,
      "hamburgers": 7370,
      "countryside": 7371,
      "browsing": 7372,
      "Squadron": 7373,
      "Ken": 7374,
      "aid": 7375,
      "ored": 7376,
      "ras": 7377,
      "bystand": 7378,
      "rush": 7379,
      "deb": 7380,
      "scattered": 7381,
      "berry": 7382,
      "attacking": 7383,
      "Northern": 7384,
      "decorative": 7385,
      "problem": 7386,
      "belongings": 7387,
      "texting": 7388,
      "aerial": 7389,
      "Athlet": 7390,
      "Games": 7391,
      "remo": 7392,
      "doms": 7393,
      "rights": 7394,
      "vere": 7395,
      "ody": 7396,
      "handrail": 7397,
      "grave": 7398,
      "scopes": 7399,
      "Manila": 7400,
      "bats": 7401,
      "surfers": 7402,
      "ifying": 7403,
      "rooftop": 7404,
      "gesturing": 7405,
      "advertisements": 7406,
      "contraption": 7407,
      "Hawaiian": 7408,
      "associated": 7409,
      "Billboard": 7410,
      "vies": 7411,
      "zil": 7412,
      "inspired": 7413,
      "rag": 7414,
      "suffe": 7415,
      "county": 7416,
      "gaze": 7417,
      "Cross": 7418,
      "quarium": 7419,
      "stringed": 7420,
      "Club": 7421,
      "silhouette": 7422,
      "determined": 7423,
      "76": 7424,
      "Os": 7425,
      "kan": 7426,
      "voc": 7427,
      "opoly": 7428,
      "dome": 7429,
      "uma": 7430,
      "trave": 7431,
      "Second": 7432,
      "friendly": 7433,
      "tights": 7434,
      "marker": 7435,
      "hammock": 7436,
      "Jose": 7437,
      "identified": 7438,
      "chips": 7439,
      "Sum": 7440,
      "champ": 7441,
      "thous": 7442,
      "consum": 7443,
      "contact": 7444,
      "rugs": 7445,
      "mowing": 7446,
      "motorized": 7447,
      "proud": 7448,
      "turquoise": 7449,
      "countries": 7450,
      "strate": 7451,
      "posters": 7452,
      "eteria": 7453,
      "entertains": 7454,
      "increase": 7455,
      "Tropical": 7456,
      "ultane": 7457,
      "cafeteria": 7458,
      "Spectators": 7459,
      "suffered": 7460,
      "aquarium": 7461,
      "vens": 7462,
      "las": 7463,
      "boss": 7464,
      "bud": 7465,
      "page": 7466,
      "struck": 7467,
      "competitive": 7468,
      "showed": 7469,
      "Ross": 7470,
      "cherry": 7471,
      "Major": 7472,
      "Shop": 7473,
      "graduation": 7474,
      "Basket": 7475,
      "fine": 7476,
      "confl": 7477,
      "scenes": 7478,
      "critical": 7479,
      "potential": 7480,
      "Ball": 7481,
      "Sc": 7482,
      "calls": 7483,
      "replace": 7484,
      "scaling": 7485,
      "quad": 7486,
      "barking": 7487,
      "homework": 7488,
      "cash": 7489,
      "containers": 7490,
      "photographing": 7491,
      "blocked": 7492,
      "message": 7493,
      "murder": 7494,
      "Rod": 7495,
      "cm": 7496,
      "gad": 7497,
      "oured": 7498,
      "ramid": 7499,
      "beating": 7500,
      "largely": 7501,
      "proposed": 7502,
      "striking": 7503,
      "barric": 7504,
      "bury": 7505,
      "normal": 7506,
      "Republic": 7507,
      "gesture": 7508,
      "opponents": 7509,
      "weapons": 7510,
      "source": 7511,
      "bid": 7512,
      "slip": 7513,
      "zip": 7514,
      "sites": 7515,
      "rival": 7516,
      "causing": 7517,
      "artillery": 7518,
      "cancer": 7519,
      "20th": 7520,
      "planned": 7521,
      "attempted": 7522,
      "circuit": 7523,
      "professor": 7524,
      "candid": 7525,
      "attended": 7526,
      "framed": 7527,
      "lush": 7528,
      "tells": 7529,
      "issues": 7530,
      "weapon": 7531,
      "arranged": 7532,
      "trolley": 7533,
      "300": 7534,
      "Sp": 7535,
      "ske": 7536,
      "incess": 7537,
      "opy": 7538,
      "gee": 7539,
      "carto": 7540,
      "pace": 7541,
      "handbag": 7542,
      "drying": 7543,
      "acqu": 7544,
      "specimen": 7545,
      "schedu": 7546,
      "shaggy": 7547,
      "Land": 7548,
      "ML": 7549,
      "Sto": 7550,
      "THE": 7551,
      "lining": 7552,
      "rhy": 7553,
      "instruction": 7554,
      "foli": 7555,
      "meant": 7556,
      "cords": 7557,
      "broadcast": 7558,
      "dolph": 7559,
      "labeled": 7560,
      "Gul": 7561,
      "Ja": 7562,
      "Mother": 7563,
      "til": 7564,
      "antly": 7565,
      "jog": 7566,
      "status": 7567,
      "operate": 7568,
      "1998": 7569,
      "Council": 7570,
      "Golden": 7571,
      "temperature": 7572,
      "Ill": 7573,
      "Todd": 7574,
      "dromat": 7575,
      "gur": 7576,
      "wise": 7577,
      "feeds": 7578,
      "services": 7579,
      "2016": 7580,
      "Common": 7581,
      "celebrates": 7582,
      "laundromat": 7583,
      "wrapping": 7584,
      "Croat": 7585,
      "Easter": 7586,
      "commander": 7587,
      "pirate": 7588,
      "illuminated": 7589,
      "Wheeler": 7590,
      "Pop": 7591,
      "ease": 7592,
      "hudd": 7593,
      "kim": 7594,
      "pep": 7595,
      "seeds": 7596,
      "paralle": 7597,
      "topless": 7598,
      "nightclub": 7599,
      "wrong": 7600,
      "presented": 7601,
      "belts": 7602,
      "booths": 7603,
      "bund": 7604,
      "deplo": 7605,
      "conducted": 7606,
      "lobby": 7607,
      "drain": 7608,
      "iP": 7609,
      "rating": 7610,
      "secut": 7611,
      "cost": 7612,
      "ulu": 7613,
      "entry": 7614,
      "exit": 7615,
      "colour": 7616,
      "offered": 7617,
      "patiently": 7618,
      "blurred": 7619,
      "comedy": 7620,
      "preparation": 7621,
      "mime": 7622,
      "vast": 7623,
      "asy": 7624,
      "cocon": 7625,
      "phal": 7626,
      "metho": 7627,
      "breast": 7628,
      "materials": 7629,
      "socializing": 7630,
      "naval": 7631,
      "divided": 7632,
      "Den": 7633,
      "eli": 7634,
      "mile": 7635,
      "yons": 7636,
      "escap": 7637,
      "ipal": 7638,
      "bands": 7639,
      "beds": 7640,
      "strum": 7641,
      "district": 7642,
      "pyramid": 7643,
      "similarly": 7644,
      "Stevens": 7645,
      "awarded": 7646,
      "issued": 7647,
      "bakery": 7648,
      "Dist": 7649,
      "Free": 7650,
      "MS": 7651,
      "Spr": 7652,
      "drew": 7653,
      "ria": 7654,
      "scouts": 7655,
      "quite": 7656,
      "classical": 7657,
      "writers": 7658,
      "continues": 7659,
      "companies": 7660,
      "Military": 7661,
      "expected": 7662,
      "Mr": 7663,
      "ius": 7664,
      "mmed": 7665,
      "rob": 7666,
      "beers": 7667,
      "contemporary": 7668,
      "1930": 7669,
      "iously": 7670,
      "centre": 7671,
      "simultane": 7672,
      "freeway": 7673,
      "controlled": 7674,
      "sequence": 7675,
      "industry": 7676,
      "influence": 7677,
      "Apple": 7678,
      "watermelon": 7679,
      "55": 7680,
      "Live": 7681,
      "talent": 7682,
      "grapher": 7683,
      "span": 7684,
      "marks": 7685,
      "curi": 7686,
      "prize": 7687,
      "Good": 7688,
      "Francis": 7689,
      "cyclone": 7690,
      "toilet": 7691,
      "schol": 7692,
      "Father": 7693,
      "Pale": 7694,
      "Tay": 7695,
      "oo": 7696,
      "zes": 7697,
      "esus": 7698,
      "ghters": 7699,
      "indu": 7700,
      "grabs": 7701,
      "compared": 7702,
      "draped": 7703,
      "picked": 7704,
      "tosses": 7705,
      "southeast": 7706,
      "tickets": 7707,
      "Catholic": 7708,
      "Louis": 7709,
      "46": 7710,
      "Camp": 7711,
      "Vi": 7712,
      "fist": 7713,
      "wen": 7714,
      "altar": 7715,
      "shines": 7716,
      "rafting": 7717,
      "sciss": 7718,
      "expl": 7719,
      "More": 7720,
      "allows": 7721,
      "cheerleader": 7722,
      "levels": 7723,
      "horizont": 7724,
      "tomatoes": 7725,
      "Russian": 7726,
      "Cast": 7727,
      "UN": 7728,
      "oke": 7729,
      "itial": 7730,
      "weird": 7731,
      "terms": 7732,
      "shots": 7733,
      "earned": 7734,
      "crime": 7735,
      "Department": 7736,
      "harbor": 7737,
      "performances": 7738,
      "gardening": 7739,
      "copies": 7740,
      "shelf": 7741,
      "Jackson": 7742,
      "Italy": 7743,
      "Runners": 7744,
      "delivering": 7745,
      "Tele": 7746,
      "Vo": 7747,
      "gling": 7748,
      "iation": 7749,
      "vy": 7750,
      "peoples": 7751,
      "offers": 7752,
      "jeep": 7753,
      "stocking": 7754,
      "earrings": 7755,
      "wield": 7756,
      "Beaut": 7757,
      "Food": 7758,
      "delivery": 7759,
      "companion": 7760,
      "Rachel": 7761,
      "barbecu": 7762,
      "bridesma": 7763,
      "9th": 7764,
      "CE": 7765,
      "bend": 7766,
      "rul": 7767,
      "sin": 7768,
      "snor": 7769,
      "swords": 7770,
      "veter": 7771,
      "champion": 7772,
      "imag": 7773,
      "content": 7774,
      "movies": 7775,
      "jogg": 7776,
      "column": 7777,
      "foods": 7778,
      "receive": 7779,
      "wonder": 7780,
      "guests": 7781,
      "ibility": 7782,
      "Portu": 7783,
      "beyond": 7784,
      "Ski": 7785,
      "Spain": 7786,
      "nin": 7787,
      "sted": 7788,
      "core": 7789,
      "outer": 7790,
      "bib": 7791,
      "cles": 7792,
      "workshop": 7793,
      "berg": 7794,
      "trio": 7795,
      "canyon": 7796,
      "evac": 7797,
      "bowler": 7798,
      "viewed": 7799,
      "crimin": 7800,
      "engage": 7801,
      "Commission": 7802,
      "blazer": 7803,
      "promo": 7804,
      "conducting": 7805,
      "responsible": 7806,
      "immediately": 7807,
      "Court": 7808,
      "flee": 7809,
      "inde": 7810,
      "infantry": 7811,
      "upright": 7812,
      "spin": 7813,
      "sphere": 7814,
      "otic": 7815,
      "dried": 7816,
      "finals": 7817,
      "seek": 7818,
      "dryer": 7819,
      "daughters": 7820,
      "150": 7821,
      "powerful": 7822,
      "Class": 7823,
      "Kar": 7824,
      "Lan": 7825,
      "Mat": 7826,
      "airl": 7827,
      "gative": 7828,
      "phe": 7829,
      "sick": 7830,
      "raking": 7831,
      "carved": 7832,
      "litter": 7833,
      "xture": 7834,
      "closing": 7835,
      "crosscountry": 7836,
      "buses": 7837,
      "shoppers": 7838,
      "crashing": 7839,
      "operated": 7840,
      "effort": 7841,
      "hung": 7842,
      "Brad": 7843,
      "Brazil": 7844,
      "Storm": 7845,
      "enthusiast": 7846,
      "Taylor": 7847,
      "65": 7848,
      "Fle": 7849,
      "Sub": 7850,
      "dated": 7851,
      "mous": 7852,
      "inches": 7853,
      "forts": 7854,
      "wns": 7855,
      "upcoming": 7856,
      "chester": 7857,
      "shed": 7858,
      "climbed": 7859,
      "trained": 7860,
      "capt": 7861,
      "competes": 7862,
      "patrol": 7863,
      "shortly": 7864,
      "stopping": 7865,
      "sprayed": 7866,
      "finds": 7867,
      "travels": 7868,
      "antique": 7869,
      "officials": 7870,
      "Carolina": 7871,
      "Clar": 7872,
      "sac": 7873,
      "oul": 7874,
      "opport": 7875,
      "raz": 7876,
      "formally": 7877,
      "haust": 7878,
      "commented": 7879,
      "distin": 7880,
      "cigarettes": 7881,
      "destroy": 7882,
      "Basketball": 7883,
      "reddish": 7884,
      "ritual": 7885,
      "vegetation": 7886,
      "episodes": 7887,
      "Acad": 7888,
      "Party": 7889,
      "occasion": 7890,
      "scissors": 7891,
      "Civil": 7892,
      "Pass": 7893,
      "Si": 7894,
      "gence": 7895,
      "ires": 7896,
      "strolling": 7897,
      "becomes": 7898,
      "standard": 7899,
      "somewhat": 7900,
      "quality": 7901,
      "armor": 7902,
      "stoop": 7903,
      "clothesline": 7904,
      "dragging": 7905,
      "colorfully": 7906,
      "Lots": 7907,
      "possession": 7908,
      "tutu": 7909,
      "bronco": 7910,
      "technique": 7911,
      "awning": 7912,
      "ught": 7913,
      "answ": 7914,
      "revol": 7915,
      "encoura": 7916,
      "enters": 7917,
      "greater": 7918,
      "purses": 7919,
      "cashi": 7920,
      "Mos": 7921,
      "photographers": 7922,
      "widely": 7923,
      "Hispanic": 7924,
      "sailor": 7925,
      "fedora": 7926,
      "measure": 7927,
      "Saint": 7928,
      "citizens": 7929,
      "Empire": 7930,
      "Israel": 7931,
      "exhibition": 7932,
      "mannequin": 7933,
      "Jer": 7934,
      "bility": 7935,
      "gang": 7936,
      "allowing": 7937,
      "icated": 7938,
      "greatest": 7939,
      "scrap": 7940,
      "certi": 7941,
      "prem": 7942,
      "headquarters": 7943,
      "typing": 7944,
      "shepherd": 7945,
      "serv": 7946,
      "residents": 7947,
      "mascot": 7948,
      "crayons": 7949,
      "syl": 7950,
      "politics": 7951,
      "Corps": 7952,
      "selected": 7953,
      "sparring": 7954,
      "Various": 7955,
      "inspects": 7956,
      "vocals": 7957,
      "Ly": 7958,
      "awaiting": 7959,
      "oks": 7960,
      "necess": 7961,
      "loose": 7962,
      "devil": 7963,
      "lasso": 7964,
      "psy": 7965,
      "firing": 7966,
      "crack": 7967,
      "portable": 7968,
      "muzzle": 7969,
      "projector": 7970,
      "Service": 7971,
      "blurry": 7972,
      "harmonica": 7973,
      "adopted": 7974,
      "Soldiers": 7975,
      "Bey": 7976,
      "Time": 7977,
      "killing": 7978,
      "inal": 7979,
      "heat": 7980,
      "ersby": 7981,
      "watering": 7982,
      "agent": 7983,
      "istics": 7984,
      "projects": 7985,
      "Chan": 7986,
      "shave": 7987,
      "strapped": 7988,
      "network": 7989,
      "1993": 7990,
      "technology": 7991,
      "Fla": 7992,
      "royal": 7993,
      "weed": 7994,
      "unfinished": 7995,
      "hore": 7996,
      "offensive": 7997,
      "surve": 7998,
      "account": 7999
    },
    "merges": [
      [
        "i",
        "n"
      ],
      [
        "a",
        "n"
      ],
      [
        "h",
        "e"
      ],
      [
        "in",
        "g"
      ],
      [
        "r",
        "e"
      ],
      [
        "t",
        "he"
      ],
      [
        "o",
        "n"
      ],
      [
        "i",
        "s"
      ],
      [
        "e",
        "r"
      ],
      [
        "i",
        "t"
      ],
      [
        "l",
        "e"
      ],
      [
        "a",
        "t"
      ],
      [
        "a",
        "r"
      ],
      [
        "m",
        "an"
      ],
      [
        "o",
        "u"
      ],
      [
        "an",
        "d"
      ],
      [
        "s",
        "t"
      ],
      [
        "a",
        "l"
      ],
      [
        "e",
        "n"
      ],
      [
        "w",
        "o"
      ],
      [
        "o",
        "f"
      ],
      [
        "o",
        "r"
      ],
      [
        "l",
        "a"
      ],
      [
        "i",
        "r"
      ],
      [
        "t",
        "o"
      ],
      [
        "a",
        "re"
      ],
      [
        "T",
        "he"
      ],
      [
        "c",
        "h"
      ],
      [
        "r",
        "o"
      ],
      [
        "e",
        "d"
      ],
      [
        "e",
        "s"
      ],
      [
        "c",
        "k"
      ],
      [
        "l",
        "d"
      ],
      [
        "a",
        "s"
      ],
      [
        "it",
        "h"
      ],
      [
        "w",
        "ith"
      ],
      [
        "i",
        "d"
      ],
      [
        "e",
        "t"
      ],
      [
        "o",
        "p"
      ],
      [
        "d",
        "o"
      ],
      [
        "l",
        "o"
      ],
      [
        "s",
        "h"
      ],
      [
        "b",
        "o"
      ],
      [
        "i",
        "c"
      ],
      [
        "w",
        "h"
      ],
      [
        "ou",
        "n"
      ],
      [
        "k",
        "ing"
      ],
      [
        "wo",
        "man"
      ],
      [
        "p",
        "e"
      ],
      [
        "t",
        "h"
      ],
      [
        "w",
        "e"
      ],
      [
        "p",
        "la"
      ],
      [
        "m",
        "en"
      ],
      [
        "op",
        "le"
      ],
      [
        "t",
        "s"
      ],
      [
        "r",
        "a"
      ],
      [
        "er",
        "s"
      ],
      [
        "al",
        "l"
      ],
      [
        "pla",
        "y"
      ],
      [
        "o",
        "m"
      ],
      [
        "u",
        "n"
      ],
      [
        "a",
        "d"
      ],
      [
        "b",
        "e"
      ],
      [
        "f",
        "or"
      ],
      [
        "t",
        "ing"
      ],
      [
        "pe",
        "ople"
      ],
      [
        "g",
        "e"
      ],
      [
        "id",
        "e"
      ],
      [
        "g",
        "r"
      ],
      [
        "s",
        "e"
      ],
      [
        "a",
        "m"
      ],
      [
        "T",
        "wo"
      ],
      [
        "h",
        "is"
      ],
      [
        "ar",
        "ing"
      ],
      [
        "s",
        "s"
      ],
      [
        "i",
        "on"
      ],
      [
        "i",
        "l"
      ],
      [
        "c",
        "e"
      ],
      [
        "s",
        "it"
      ],
      [
        "i",
        "ld"
      ],
      [
        "r",
        "i"
      ],
      [
        "g",
        "h"
      ],
      [
        "we",
        "aring"
      ],
      [
        "w",
        "n"
      ],
      [
        "re",
        "d"
      ],
      [
        "the",
        "r"
      ],
      [
        "ir",
        "t"
      ],
      [
        "h",
        "o"
      ],
      [
        "ir",
        "l"
      ],
      [
        "v",
        "e"
      ],
      [
        "u",
        "r"
      ],
      [
        "w",
        "al"
      ],
      [
        "g",
        "irl"
      ],
      [
        "st",
        "and"
      ],
      [
        "n",
        "e"
      ],
      [
        "bo",
        "y"
      ],
      [
        "b",
        "l"
      ],
      [
        "i",
        "le"
      ],
      [
        "i",
        "m"
      ],
      [
        "t",
        "a"
      ],
      [
        "do",
        "g"
      ],
      [
        "sh",
        "irt"
      ],
      [
        "on",
        "e"
      ],
      [
        "v",
        "er"
      ],
      [
        "it",
        "e"
      ],
      [
        "u",
        "m"
      ],
      [
        "oun",
        "g"
      ],
      [
        "c",
        "o"
      ],
      [
        "u",
        "e"
      ],
      [
        "b",
        "y"
      ],
      [
        "p",
        "o"
      ],
      [
        "he",
        "r"
      ],
      [
        "play",
        "ing"
      ],
      [
        "w",
        "at"
      ],
      [
        "t",
        "e"
      ],
      [
        "y",
        "oung"
      ],
      [
        "c",
        "t"
      ],
      [
        "b",
        "u"
      ],
      [
        "wh",
        "ile"
      ],
      [
        "la",
        "ck"
      ],
      [
        "wh",
        "ite"
      ],
      [
        "ou",
        "p"
      ],
      [
        "ar",
        "d"
      ],
      [
        "a",
        "ck"
      ],
      [
        "ou",
        "t"
      ],
      [
        "ch",
        "ild"
      ],
      [
        "b",
        "lack"
      ],
      [
        "oun",
        "d"
      ],
      [
        "sit",
        "ting"
      ],
      [
        "l",
        "y"
      ],
      [
        "o",
        "ther"
      ],
      [
        "lo",
        "o"
      ],
      [
        "bl",
        "ue"
      ],
      [
        "k",
        "e"
      ],
      [
        "n",
        "o"
      ],
      [
        "a",
        "ir"
      ],
      [
        "m",
        "a"
      ],
      [
        "b",
        "all"
      ],
      [
        "u",
        "p"
      ],
      [
        "re",
        "e"
      ],
      [
        "stand",
        "ing"
      ],
      [
        "l",
        "i"
      ],
      [
        "ho",
        "ld"
      ],
      [
        "om",
        "e"
      ],
      [
        "f",
        "r"
      ],
      [
        "a",
        "p"
      ],
      [
        "st",
        "re"
      ],
      [
        "wo",
        "r"
      ],
      [
        "a",
        "y"
      ],
      [
        "t",
        "er"
      ],
      [
        "gr",
        "oup"
      ],
      [
        "c",
        "on"
      ],
      [
        "u",
        "l"
      ],
      [
        "do",
        "wn"
      ],
      [
        "e",
        "l"
      ],
      [
        "u",
        "s"
      ],
      [
        "c",
        "ar"
      ],
      [
        "f",
        "o"
      ],
      [
        "lo",
        "w"
      ],
      [
        "stre",
        "et"
      ],
      [
        "k",
        "s"
      ],
      [
        "ou",
        "ts"
      ],
      [
        "o",
        "d"
      ],
      [
        "f",
        "i"
      ],
      [
        "wal",
        "king"
      ],
      [
        "outs",
        "ide"
      ],
      [
        "f",
        "e"
      ],
      [
        "ers",
        "on"
      ],
      [
        "on",
        "t"
      ],
      [
        "en",
        "t"
      ],
      [
        "c",
        "he"
      ],
      [
        "r",
        "un"
      ],
      [
        "s",
        "m"
      ],
      [
        "fr",
        "ont"
      ],
      [
        "p",
        "erson"
      ],
      [
        "p",
        "ar"
      ],
      [
        "p",
        "ing"
      ],
      [
        "ro",
        "m"
      ],
      [
        "t",
        "wo"
      ],
      [
        "re",
        "ss"
      ],
      [
        "re",
        "n"
      ],
      [
        "a",
        "ch"
      ],
      [
        "o",
        "l"
      ],
      [
        "c",
        "ro"
      ],
      [
        "s",
        "ide"
      ],
      [
        "r",
        "id"
      ],
      [
        "hold",
        "ing"
      ],
      [
        "r",
        "u"
      ],
      [
        "w",
        "as"
      ],
      [
        "f",
        "rom"
      ],
      [
        "wat",
        "er"
      ],
      [
        "d",
        "e"
      ],
      [
        "the",
        "ir"
      ],
      [
        "g",
        "u"
      ],
      [
        "gh",
        "t"
      ],
      [
        "wo",
        "men"
      ],
      [
        "i",
        "g"
      ],
      [
        "a",
        "g"
      ],
      [
        "y",
        "ing"
      ],
      [
        "at",
        "e"
      ],
      [
        "for",
        "m"
      ],
      [
        "b",
        "le"
      ],
      [
        "s",
        "k"
      ],
      [
        "m",
        "o"
      ],
      [
        "d",
        "ress"
      ],
      [
        "b",
        "ack"
      ],
      [
        "on",
        "g"
      ],
      [
        "l",
        "l"
      ],
      [
        "th",
        "at"
      ],
      [
        "t",
        "le"
      ],
      [
        "u",
        "re"
      ],
      [
        "t",
        "ra"
      ],
      [
        "A",
        "n"
      ],
      [
        "at",
        "ion"
      ],
      [
        "d",
        "i"
      ],
      [
        "loo",
        "king"
      ],
      [
        "n",
        "ing"
      ],
      [
        "ou",
        "r"
      ],
      [
        "The",
        "re"
      ],
      [
        "v",
        "ing"
      ],
      [
        "h",
        "a"
      ],
      [
        "c",
        "om"
      ],
      [
        "g",
        "o"
      ],
      [
        "ou",
        "gh"
      ],
      [
        "g",
        "re"
      ],
      [
        "as",
        "s"
      ],
      [
        "p",
        "er"
      ],
      [
        "b",
        "i"
      ],
      [
        "c",
        "l"
      ],
      [
        "gr",
        "ound"
      ],
      [
        "T",
        "h"
      ],
      [
        "P",
        "e"
      ],
      [
        "c",
        "le"
      ],
      [
        "s",
        "o"
      ],
      [
        "j",
        "um"
      ],
      [
        "l",
        "it"
      ],
      [
        "i",
        "an"
      ],
      [
        "wal",
        "k"
      ],
      [
        "Pe",
        "ople"
      ],
      [
        "en",
        "d"
      ],
      [
        "is",
        "t"
      ],
      [
        "o",
        "ver"
      ],
      [
        "h",
        "as"
      ],
      [
        "s",
        "u"
      ],
      [
        "b",
        "ro"
      ],
      [
        "l",
        "ar"
      ],
      [
        "gre",
        "en"
      ],
      [
        "Th",
        "ree"
      ],
      [
        "h",
        "at"
      ],
      [
        "f",
        "a"
      ],
      [
        "no",
        "w"
      ],
      [
        "p",
        "a"
      ],
      [
        "r",
        "ough"
      ],
      [
        "bo",
        "ard"
      ],
      [
        "sh",
        "o"
      ],
      [
        "child",
        "ren"
      ],
      [
        "d",
        "y"
      ],
      [
        "p",
        "h"
      ],
      [
        "men",
        "t"
      ],
      [
        "s",
        "ome"
      ],
      [
        "th",
        "rough"
      ],
      [
        "or",
        "s"
      ],
      [
        "in",
        "e"
      ],
      [
        "x",
        "t"
      ],
      [
        "lar",
        "ge"
      ],
      [
        "e",
        "ld"
      ],
      [
        "wor",
        "k"
      ],
      [
        "am",
        "e"
      ],
      [
        "h",
        "and"
      ],
      [
        "o",
        "ld"
      ],
      [
        "w",
        "a"
      ],
      [
        "in",
        "d"
      ],
      [
        "g",
        "ra"
      ],
      [
        "bu",
        "ild"
      ],
      [
        "lit",
        "tle"
      ],
      [
        "in",
        "to"
      ],
      [
        "at",
        "ing"
      ],
      [
        "ne",
        "ar"
      ],
      [
        "la",
        "ss"
      ],
      [
        "it",
        "y"
      ],
      [
        "s",
        "w"
      ],
      [
        "p",
        "ic"
      ],
      [
        "y",
        "el"
      ],
      [
        "build",
        "ing"
      ],
      [
        "s",
        "now"
      ],
      [
        "h",
        "ing"
      ],
      [
        "i",
        "e"
      ],
      [
        "run",
        "ning"
      ],
      [
        "u",
        "t"
      ],
      [
        "il",
        "l"
      ],
      [
        "of",
        "f"
      ],
      [
        "yel",
        "low"
      ],
      [
        "p",
        "ro"
      ],
      [
        "b",
        "as"
      ],
      [
        "s",
        "c"
      ],
      [
        "-",
        "@"
      ],
      [
        "@",
        "-@"
      ],
      [
        "s",
        "p"
      ],
      [
        "rid",
        "ing"
      ],
      [
        "c",
        "er"
      ],
      [
        "s",
        "ing"
      ],
      [
        "a",
        "ge"
      ],
      [
        "p",
        "s"
      ],
      [
        "w",
        "d"
      ],
      [
        "ne",
        "xt"
      ],
      [
        "bro",
        "wn"
      ],
      [
        "c",
        "lo"
      ],
      [
        "ch",
        "ing"
      ],
      [
        "w",
        "ay"
      ],
      [
        "ic",
        "e"
      ],
      [
        "t",
        "al"
      ],
      [
        "cro",
        "wd"
      ],
      [
        "it",
        "s"
      ],
      [
        "re",
        "ad"
      ],
      [
        "st",
        "ru"
      ],
      [
        "in",
        "k"
      ],
      [
        "t",
        "r"
      ],
      [
        "t",
        "ure"
      ],
      [
        "d",
        "r"
      ],
      [
        "i",
        "ck"
      ],
      [
        "ct",
        "ion"
      ],
      [
        "d",
        "er"
      ],
      [
        "sm",
        "all"
      ],
      [
        "be",
        "ach"
      ],
      [
        "p",
        "re"
      ],
      [
        "ma",
        "le"
      ],
      [
        "g",
        "et"
      ],
      [
        "an",
        "t"
      ],
      [
        "le",
        "e"
      ],
      [
        "dress",
        "ed"
      ],
      [
        "re",
        "st"
      ],
      [
        "an",
        "other"
      ],
      [
        "an",
        "s"
      ],
      [
        "ar",
        "k"
      ],
      [
        "j",
        "e"
      ],
      [
        "j",
        "ack"
      ],
      [
        "ar",
        "ound"
      ],
      [
        "ta",
        "in"
      ],
      [
        "c",
        "am"
      ],
      [
        "q",
        "u"
      ],
      [
        "c",
        "a"
      ],
      [
        "jack",
        "et"
      ],
      [
        "he",
        "ad"
      ],
      [
        "e",
        "x"
      ],
      [
        "an",
        "ge"
      ],
      [
        "fi",
        "eld"
      ],
      [
        "o",
        "t"
      ],
      [
        "g",
        "lass"
      ],
      [
        "com",
        "p"
      ],
      [
        "girl",
        "s"
      ],
      [
        "ta",
        "ble"
      ],
      [
        "e",
        "m"
      ],
      [
        "dog",
        "s"
      ],
      [
        "bi",
        "ke"
      ],
      [
        "par",
        "k"
      ],
      [
        "v",
        "es"
      ],
      [
        "le",
        "d"
      ],
      [
        "c",
        "ing"
      ],
      [
        "per",
        "form"
      ],
      [
        "y",
        "cle"
      ],
      [
        "ar",
        "t"
      ],
      [
        "pic",
        "ture"
      ],
      [
        "d",
        "an"
      ],
      [
        "gr",
        "ass"
      ],
      [
        "h",
        "air"
      ],
      [
        "or",
        "t"
      ],
      [
        "s",
        "un"
      ],
      [
        "to",
        "p"
      ],
      [
        "a",
        "f"
      ],
      [
        "stand",
        "s"
      ],
      [
        "i",
        "p"
      ],
      [
        "i",
        "ve"
      ],
      [
        "s",
        "ur"
      ],
      [
        "g",
        "ame"
      ],
      [
        "it",
        "ar"
      ],
      [
        "b",
        "er"
      ],
      [
        "ig",
        "n"
      ],
      [
        "h",
        "im"
      ],
      [
        "b",
        "a"
      ],
      [
        "k",
        "id"
      ],
      [
        "sit",
        "s"
      ],
      [
        "u",
        "d"
      ],
      [
        "j",
        "o"
      ],
      [
        "s",
        "lee"
      ],
      [
        "M",
        "an"
      ],
      [
        "f",
        "ul"
      ],
      [
        "at",
        "ed"
      ],
      [
        "h",
        "ind"
      ],
      [
        "wor",
        "king"
      ],
      [
        "cro",
        "ss"
      ],
      [
        "es",
        "s"
      ],
      [
        "a",
        "b"
      ],
      [
        "at",
        "h"
      ],
      [
        "be",
        "hind"
      ],
      [
        "out",
        "do"
      ],
      [
        "bu",
        "s"
      ],
      [
        "jum",
        "ping"
      ],
      [
        "sw",
        "im"
      ],
      [
        "er",
        "a"
      ],
      [
        "glass",
        "es"
      ],
      [
        "I",
        "n"
      ],
      [
        "t",
        "y"
      ],
      [
        "C",
        "h"
      ],
      [
        "p",
        "ed"
      ],
      [
        "h",
        "i"
      ],
      [
        "k",
        "es"
      ],
      [
        "1",
        "9"
      ],
      [
        "ro",
        "ck"
      ],
      [
        "gu",
        "y"
      ],
      [
        "or",
        "ts"
      ],
      [
        "back",
        "ground"
      ],
      [
        "or",
        "ange"
      ],
      [
        "i",
        "es"
      ],
      [
        "ph",
        "one"
      ],
      [
        "d",
        "ay"
      ],
      [
        "an",
        "ts"
      ],
      [
        "side",
        "walk"
      ],
      [
        "it",
        "ing"
      ],
      [
        "w",
        "in"
      ],
      [
        "play",
        "er"
      ],
      [
        "on",
        "d"
      ],
      [
        "in",
        "t"
      ],
      [
        "s",
        "om"
      ],
      [
        "a",
        "c"
      ],
      [
        "u",
        "st"
      ],
      [
        "p",
        "l"
      ],
      [
        "ro",
        "om"
      ],
      [
        "ar",
        "m"
      ],
      [
        "l",
        "ing"
      ],
      [
        "p",
        "ink"
      ],
      [
        "he",
        "l"
      ],
      [
        "che",
        "s"
      ],
      [
        "the",
        "m"
      ],
      [
        "som",
        "et"
      ],
      [
        "loo",
        "ks"
      ],
      [
        "0",
        "0"
      ],
      [
        "m",
        "et"
      ],
      [
        "w",
        "he"
      ],
      [
        "boy",
        "s"
      ],
      [
        "S",
        "ome"
      ],
      [
        "wh",
        "o"
      ],
      [
        "cam",
        "era"
      ],
      [
        "t",
        "or"
      ],
      [
        "wat",
        "ching"
      ],
      [
        "tal",
        "king"
      ],
      [
        "t",
        "ri"
      ],
      [
        "play",
        "s"
      ],
      [
        "somet",
        "hing"
      ],
      [
        "w",
        "all"
      ],
      [
        "is",
        "h"
      ],
      [
        "ge",
        "ther"
      ],
      [
        "c",
        "ity"
      ],
      [
        "il",
        "ing"
      ],
      [
        "la",
        "dy"
      ],
      [
        "wo",
        "od"
      ],
      [
        "to",
        "gether"
      ],
      [
        "we",
        "re"
      ],
      [
        "ar",
        "s"
      ],
      [
        "oup",
        "le"
      ],
      [
        "e",
        "y"
      ],
      [
        "c",
        "or"
      ],
      [
        "co",
        "l"
      ],
      [
        "oun",
        "tain"
      ],
      [
        "w",
        "ard"
      ],
      [
        "s",
        "pe"
      ],
      [
        "us",
        "ic"
      ],
      [
        "bo",
        "o"
      ],
      [
        "i",
        "ch"
      ],
      [
        "gu",
        "itar"
      ],
      [
        "so",
        "c"
      ],
      [
        "c",
        "ouple"
      ],
      [
        "m",
        "e"
      ],
      [
        "c",
        "at"
      ],
      [
        "f",
        "f"
      ],
      [
        "ver",
        "al"
      ],
      [
        "a",
        "k"
      ],
      [
        "ro",
        "ad"
      ],
      [
        "be",
        "ing"
      ],
      [
        "m",
        "er"
      ],
      [
        "le",
        "s"
      ],
      [
        "no",
        "t"
      ],
      [
        "ta",
        "king"
      ],
      [
        "e",
        "ating"
      ],
      [
        "g",
        "a"
      ],
      [
        "st",
        "o"
      ],
      [
        "un",
        "der"
      ],
      [
        "sk",
        "ate"
      ],
      [
        "s",
        "he"
      ],
      [
        "ou",
        "s"
      ],
      [
        "m",
        "usic"
      ],
      [
        "e",
        "ach"
      ],
      [
        "b",
        "en"
      ],
      [
        "fo",
        "od"
      ],
      [
        "b",
        "ic"
      ],
      [
        "soc",
        "cer"
      ],
      [
        "A",
        "s"
      ],
      [
        "k",
        "et"
      ],
      [
        "r",
        "ying"
      ],
      [
        "w",
        "ing"
      ],
      [
        "b",
        "and"
      ],
      [
        "fo",
        "ot"
      ],
      [
        "ab",
        "out"
      ],
      [
        "en",
        "ce"
      ],
      [
        "wal",
        "ks"
      ],
      [
        "t",
        "en"
      ],
      [
        "b",
        "r"
      ],
      [
        "c",
        "re"
      ],
      [
        "bas",
        "e"
      ],
      [
        "i",
        "v"
      ],
      [
        "te",
        "am"
      ],
      [
        "bo",
        "at"
      ],
      [
        "cl",
        "im"
      ],
      [
        "d",
        "es"
      ],
      [
        "the",
        "y"
      ],
      [
        "d",
        "is"
      ],
      [
        "th",
        "ree"
      ],
      [
        "S",
        "e"
      ],
      [
        "a",
        "st"
      ],
      [
        "b",
        "re"
      ],
      [
        "m",
        "id"
      ],
      [
        "l",
        "ong"
      ],
      [
        "sh",
        "orts"
      ],
      [
        "g",
        "g"
      ],
      [
        "ur",
        "ing"
      ],
      [
        "a",
        "in"
      ],
      [
        "i",
        "ght"
      ],
      [
        "b",
        "ri"
      ],
      [
        "skate",
        "board"
      ],
      [
        "p",
        "u"
      ],
      [
        "m",
        "ing"
      ],
      [
        "p",
        "ants"
      ],
      [
        "al",
        "ong"
      ],
      [
        "s",
        "ign"
      ],
      [
        "ba",
        "by"
      ],
      [
        "s",
        "et"
      ],
      [
        "s",
        "and"
      ],
      [
        "s",
        "a"
      ],
      [
        "st",
        "ri"
      ],
      [
        "i",
        "al"
      ],
      [
        "gra",
        "y"
      ],
      [
        "at",
        "er"
      ],
      [
        "old",
        "er"
      ],
      [
        "ad",
        "e"
      ],
      [
        "su",
        "it"
      ],
      [
        "do",
        "ing"
      ],
      [
        "c",
        "an"
      ],
      [
        "an",
        "g"
      ],
      [
        "ben",
        "ch"
      ],
      [
        "po",
        "ol"
      ],
      [
        "b",
        "al"
      ],
      [
        "e",
        "v"
      ],
      [
        "ic",
        "an"
      ],
      [
        "f",
        "ri"
      ],
      [
        "wh",
        "ich"
      ],
      [
        "ha",
        "ve"
      ],
      [
        "ch",
        "air"
      ],
      [
        "d",
        "le"
      ],
      [
        "s",
        "er"
      ],
      [
        "h",
        "or"
      ],
      [
        "w",
        "s"
      ],
      [
        "un",
        "i"
      ],
      [
        "slee",
        "ping"
      ],
      [
        "fa",
        "ce"
      ],
      [
        "hold",
        "s"
      ],
      [
        "outdo",
        "ors"
      ],
      [
        "all",
        "y"
      ],
      [
        "sh",
        "op"
      ],
      [
        "f",
        "t"
      ],
      [
        "clim",
        "b"
      ],
      [
        "bu",
        "t"
      ],
      [
        "wa",
        "iting"
      ],
      [
        "il",
        "y"
      ],
      [
        "p",
        "ho"
      ],
      [
        "ou",
        "th"
      ],
      [
        "in",
        "side"
      ],
      [
        "h",
        "u"
      ],
      [
        "loo",
        "k"
      ],
      [
        "n",
        "er"
      ],
      [
        "st",
        "e"
      ],
      [
        "je",
        "ans"
      ],
      [
        "kid",
        "s"
      ],
      [
        "p",
        "le"
      ],
      [
        "c",
        "es"
      ],
      [
        "af",
        "ter"
      ],
      [
        "fri",
        "end"
      ],
      [
        "p",
        "ur"
      ],
      [
        "ra",
        "ce"
      ],
      [
        "b",
        "ar"
      ],
      [
        "d",
        "ark"
      ],
      [
        "car",
        "rying"
      ],
      [
        "f",
        "lo"
      ],
      [
        "fe",
        "male"
      ],
      [
        "t",
        "ree"
      ],
      [
        "pho",
        "to"
      ],
      [
        "bic",
        "ycle"
      ],
      [
        "uni",
        "form"
      ],
      [
        "sm",
        "iling"
      ],
      [
        "s",
        "we"
      ],
      [
        "As",
        "ian"
      ],
      [
        "d",
        "ri"
      ],
      [
        "m",
        "ountain"
      ],
      [
        "l",
        "ine"
      ],
      [
        "bl",
        "ond"
      ],
      [
        "stru",
        "ction"
      ],
      [
        "st",
        "age"
      ],
      [
        "hand",
        "s"
      ],
      [
        "b",
        "ag"
      ],
      [
        "F",
        "our"
      ],
      [
        "t",
        "an"
      ],
      [
        "ou",
        "ld"
      ],
      [
        "a",
        "u"
      ],
      [
        "base",
        "ball"
      ],
      [
        "t",
        "im"
      ],
      [
        "ou",
        "se"
      ],
      [
        "bas",
        "ket"
      ],
      [
        "perform",
        "ing"
      ],
      [
        "h",
        "ome"
      ],
      [
        "th",
        "ing"
      ],
      [
        "ha",
        "ving"
      ],
      [
        "d",
        "u"
      ],
      [
        "h",
        "ad"
      ],
      [
        "swim",
        "ming"
      ],
      [
        "sto",
        "re"
      ],
      [
        "li",
        "ght"
      ],
      [
        "ck",
        "s"
      ],
      [
        "fi",
        "re"
      ],
      [
        "al",
        "s"
      ],
      [
        "u",
        "se"
      ],
      [
        "tra",
        "in"
      ],
      [
        "m",
        "ar"
      ],
      [
        "ver",
        "y"
      ],
      [
        "hor",
        "se"
      ],
      [
        "get",
        "ting"
      ],
      [
        "an",
        "ce"
      ],
      [
        "c",
        "ap"
      ],
      [
        "o",
        "b"
      ],
      [
        "us",
        "ing"
      ],
      [
        "ne",
        "w"
      ],
      [
        "i",
        "z"
      ],
      [
        "ch",
        "o"
      ],
      [
        "m",
        "p"
      ],
      [
        "l",
        "and"
      ],
      [
        "t",
        "i"
      ],
      [
        "d",
        "irt"
      ],
      [
        "mo",
        "tor"
      ],
      [
        "d",
        "uring"
      ],
      [
        "W",
        "o"
      ],
      [
        "co",
        "at"
      ],
      [
        "foot",
        "ball"
      ],
      [
        "are",
        "a"
      ],
      [
        "a",
        "v"
      ],
      [
        "it",
        "ion"
      ],
      [
        "t",
        "re"
      ],
      [
        "m",
        "ic"
      ],
      [
        "fo",
        "re"
      ],
      [
        "ro",
        "ll"
      ],
      [
        "en",
        "jo"
      ],
      [
        "H",
        "e"
      ],
      [
        "ul",
        "t"
      ],
      [
        "y",
        "s"
      ],
      [
        "ag",
        "ain"
      ],
      [
        "read",
        "ing"
      ],
      [
        "co",
        "o"
      ],
      [
        "tr",
        "ying"
      ],
      [
        "ma",
        "king"
      ],
      [
        "f",
        "ir"
      ],
      [
        "m",
        "on"
      ],
      [
        "dan",
        "cing"
      ],
      [
        "m",
        "at"
      ],
      [
        "bo",
        "dy"
      ],
      [
        "par",
        "t"
      ],
      [
        "p",
        "r"
      ],
      [
        "b",
        "at"
      ],
      [
        "pre",
        "p"
      ],
      [
        "e",
        "ar"
      ],
      [
        "win",
        "do"
      ],
      [
        "dr",
        "in"
      ],
      [
        "con",
        "struction"
      ],
      [
        "to",
        "ward"
      ],
      [
        "v",
        "ie"
      ],
      [
        "play",
        "ers"
      ],
      [
        "f",
        "am"
      ],
      [
        "go",
        "ing"
      ],
      [
        "d",
        "ing"
      ],
      [
        "th",
        "ro"
      ],
      [
        "hi",
        "gh"
      ],
      [
        "sw",
        "ing"
      ],
      [
        "mic",
        "ro"
      ],
      [
        "n",
        "is"
      ],
      [
        "jum",
        "ps"
      ],
      [
        "in",
        "ting"
      ],
      [
        "f",
        "la"
      ],
      [
        "op",
        "en"
      ],
      [
        "ve",
        "l"
      ],
      [
        "hel",
        "met"
      ],
      [
        "re",
        "s"
      ],
      [
        "v",
        "ers"
      ],
      [
        "m",
        "ark"
      ],
      [
        "s",
        "l"
      ],
      [
        "comp",
        "et"
      ],
      [
        "tim",
        "e"
      ],
      [
        "ce",
        "an"
      ],
      [
        "r",
        "it"
      ],
      [
        "le",
        "ss"
      ],
      [
        "r",
        "ound"
      ],
      [
        "a",
        "cross"
      ],
      [
        "again",
        "st"
      ],
      [
        "fir",
        "st"
      ],
      [
        "b",
        "ed"
      ],
      [
        "Se",
        "veral"
      ],
      [
        "t",
        "ur"
      ],
      [
        "v",
        "ed"
      ],
      [
        "le",
        "y"
      ],
      [
        "work",
        "ers"
      ],
      [
        "sur",
        "f"
      ],
      [
        "th",
        "is"
      ],
      [
        "g",
        "s"
      ],
      [
        "g",
        "y"
      ],
      [
        "t",
        "ru"
      ],
      [
        "i",
        "a"
      ],
      [
        "ar",
        "y"
      ],
      [
        "h",
        "ouse"
      ],
      [
        "o",
        "cean"
      ],
      [
        "mid",
        "dle"
      ],
      [
        "run",
        "s"
      ],
      [
        "rid",
        "es"
      ],
      [
        "i",
        "red"
      ],
      [
        "wat",
        "ch"
      ],
      [
        "ir",
        "d"
      ],
      [
        "p",
        "ass"
      ],
      [
        "boo",
        "k"
      ],
      [
        "ap",
        "p"
      ],
      [
        "in",
        "stru"
      ],
      [
        "basket",
        "ball"
      ],
      [
        "l",
        "er"
      ],
      [
        "ve",
        "st"
      ],
      [
        "ten",
        "nis"
      ],
      [
        "motor",
        "c"
      ],
      [
        "ra",
        "in"
      ],
      [
        "r",
        "y"
      ],
      [
        "a",
        "ur"
      ],
      [
        "on",
        "s"
      ],
      [
        "po",
        "sing"
      ],
      [
        "ir",
        "ts"
      ],
      [
        "O",
        "ne"
      ],
      [
        "p",
        "ra"
      ],
      [
        "c",
        "al"
      ],
      [
        "g",
        "i"
      ],
      [
        "at",
        "es"
      ],
      [
        "f",
        "l"
      ],
      [
        "m",
        "outh"
      ],
      [
        "a",
        "ct"
      ],
      [
        "c",
        "oun"
      ],
      [
        "climb",
        "ing"
      ],
      [
        "se",
        "l"
      ],
      [
        "rest",
        "aur"
      ],
      [
        "st",
        "ick"
      ],
      [
        "flo",
        "or"
      ],
      [
        "men",
        "ts"
      ],
      [
        "sun",
        "glasses"
      ],
      [
        "c",
        "ed"
      ],
      [
        "fam",
        "ily"
      ],
      [
        "ap",
        "er"
      ],
      [
        "restaur",
        "ant"
      ],
      [
        "col",
        "or"
      ],
      [
        "bo",
        "w"
      ],
      [
        "li",
        "ke"
      ],
      [
        "p",
        "ort"
      ],
      [
        "v",
        "is"
      ],
      [
        "an",
        "ing"
      ],
      [
        "in",
[...]
